{
  "version": "1.0",
  "truncation": null,
  "padding": null,
  "added_tokens": [
    {
      "id": 0,
      "content": "[PAD]",
      "single_word": false,
      "lstrip": false,
      "rstrip": false,
      "normalized": false,
      "special": true
    },
    {
      "id": 1,
      "content": "[EOS]",
      "single_word": false,
      "lstrip": false,
      "rstrip": false,
      "normalized": false,
      "special": true
    },
    {
      "id": 2,
      "content": "[SEP]",
      "single_word": false,
      "lstrip": false,
      "rstrip": false,
      "normalized": false,
      "special": true
    },
    {
      "id": 3,
      "content": "[BOS]",
      "single_word": false,
      "lstrip": false,
      "rstrip": false,
      "normalized": false,
      "special": true
    },
    {
      "id": 4,
      "content": "[CLS]",
      "single_word": false,
      "lstrip": false,
      "rstrip": false,
      "normalized": false,
      "special": true
    },
    {
      "id": 5,
      "content": "[MASK]",
      "single_word": false,
      "lstrip": false,
      "rstrip": false,
      "normalized": false,
      "special": true
    },
    {
      "id": 6,
      "content": "[UNK]",
      "single_word": false,
      "lstrip": false,
      "rstrip": false,
      "normalized": false,
      "special": true
    },
    {
      "id": 5738,
      "content": "\t",
      "single_word": false,
      "lstrip": false,
      "rstrip": false,
      "normalized": true,
      "special": false
    }
  ],
  "normalizer": {
    "type": "Sequence",
    "normalizers": [
      {
        "type": "NFKC"
      }
    ]
  },
  "pre_tokenizer": {
    "type": "Sequence",
    "pretokenizers": [
      {
        "type": "Punctuation",
        "behavior": "Isolated"
      },
      {
        "type": "Digits",
        "individual_digits": true
      },
      {
        "type": "Metaspace",
        "replacement": "▁",
        "add_prefix_space": true,
        "prepend_scheme": "always"
      }
    ]
  },
  "post_processor": null,
  "decoder": {
    "type": "Metaspace",
    "replacement": "▁",
    "add_prefix_space": true,
    "prepend_scheme": "always"
  },
  "model": {
    "type": "BPE",
    "dropout": null,
    "unk_token": "[UNK]",
    "continuing_subword_prefix": null,
    "end_of_word_suffix": null,
    "fuse_unk": false,
    "byte_fallback": false,
    "vocab": {
      "[PAD]": 0,
      "[EOS]": 1,
      "[SEP]": 2,
      "[BOS]": 3,
      "[CLS]": 4,
      "[MASK]": 5,
      "[UNK]": 6,
      "\n": 7,
      "!": 8,
      "\"": 9,
      "#": 10,
      "$": 11,
      "%": 12,
      "&": 13,
      "'": 14,
      "(": 15,
      ")": 16,
      "*": 17,
      "+": 18,
      ",": 19,
      "-": 20,
      ".": 21,
      "/": 22,
      "0": 23,
      "1": 24,
      "2": 25,
      "3": 26,
      "4": 27,
      "5": 28,
      "6": 29,
      "7": 30,
      "8": 31,
      "9": 32,
      ":": 33,
      ";": 34,
      "<": 35,
      "=": 36,
      ">": 37,
      "?": 38,
      "A": 39,
      "B": 40,
      "C": 41,
      "D": 42,
      "E": 43,
      "F": 44,
      "G": 45,
      "H": 46,
      "I": 47,
      "J": 48,
      "K": 49,
      "L": 50,
      "M": 51,
      "N": 52,
      "O": 53,
      "P": 54,
      "Q": 55,
      "R": 56,
      "S": 57,
      "T": 58,
      "U": 59,
      "V": 60,
      "W": 61,
      "X": 62,
      "Y": 63,
      "Z": 64,
      "[": 65,
      "\\": 66,
      "]": 67,
      "_": 68,
      "a": 69,
      "b": 70,
      "c": 71,
      "d": 72,
      "e": 73,
      "f": 74,
      "g": 75,
      "h": 76,
      "i": 77,
      "j": 78,
      "k": 79,
      "l": 80,
      "m": 81,
      "n": 82,
      "o": 83,
      "p": 84,
      "q": 85,
      "r": 86,
      "s": 87,
      "t": 88,
      "u": 89,
      "v": 90,
      "w": 91,
      "x": 92,
      "y": 93,
      "z": 94,
      "{": 95,
      "|": 96,
      "}": 97,
      "~": 98,
      "¥": 99,
      "°": 100,
      "±": 101,
      "·": 102,
      "Å": 103,
      "Ç": 104,
      "×": 105,
      "à": 106,
      "á": 107,
      "ã": 108,
      "æ": 109,
      "ç": 110,
      "è": 111,
      "é": 112,
      "ë": 113,
      "ó": 114,
      "ö": 115,
      "ü": 116,
      "ý": 117,
      "ā": 118,
      "ě": 119,
      "ī": 120,
      "ơ": 121,
      "ư": 122,
      "ʔ": 123,
      "Α": 124,
      "ή": 125,
      "ί": 126,
      "α": 127,
      "γ": 128,
      "ζ": 129,
      "ι": 130,
      "κ": 131,
      "λ": 132,
      "μ": 133,
      "ν": 134,
      "ο": 135,
      "ς": 136,
      "σ": 137,
      "υ": 138,
      "ό": 139,
      "ἶ": 140,
      "ῆ": 141,
      "​": 142,
      "–": 143,
      "—": 144,
      "―": 145,
      "‘": 146,
      "’": 147,
      "“": 148,
      "”": 149,
      "•": 150,
      "‧": 151,
      "‰": 152,
      "′": 153,
      "→": 154,
      "−": 155,
      "∶": 156,
      "≤": 157,
      "≥": 158,
      "⊂": 159,
      "─": 160,
      "▁": 161,
      "、": 162,
      "。": 163,
      "〇": 164,
      "〈": 165,
      "〉": 166,
      "《": 167,
      "》": 168,
      "「": 169,
      "」": 170,
      "『": 171,
      "』": 172,
      "〔": 173,
      "〕": 174,
      "い": 175,
      "か": 176,
      "ぐ": 177,
      "せ": 178,
      "た": 179,
      "ち": 180,
      "つ": 181,
      "で": 182,
      "な": 183,
      "に": 184,
      "の": 185,
      "ま": 186,
      "れ": 187,
      "を": 188,
      "・": 189,
      "ー": 190,
      "㻋": 191,
      "䃅": 192,
      "䜣": 193,
      "一": 194,
      "丁": 195,
      "七": 196,
      "万": 197,
      "丈": 198,
      "三": 199,
      "上": 200,
      "下": 201,
      "不": 202,
      "与": 203,
      "丐": 204,
      "丑": 205,
      "专": 206,
      "且": 207,
      "丕": 208,
      "世": 209,
      "丘": 210,
      "丙": 211,
      "业": 212,
      "丛": 213,
      "东": 214,
      "丝": 215,
      "丞": 216,
      "丢": 217,
      "两": 218,
      "严": 219,
      "丧": 220,
      "个": 221,
      "丫": 222,
      "中": 223,
      "丰": 224,
      "串": 225,
      "临": 226,
      "丸": 227,
      "丹": 228,
      "为": 229,
      "主": 230,
      "丽": 231,
      "举": 232,
      "乂": 233,
      "乃": 234,
      "久": 235,
      "么": 236,
      "义": 237,
      "之": 238,
      "乌": 239,
      "乍": 240,
      "乎": 241,
      "乏": 242,
      "乐": 243,
      "乒": 244,
      "乓": 245,
      "乔": 246,
      "乘": 247,
      "乙": 248,
      "九": 249,
      "乞": 250,
      "也": 251,
      "习": 252,
      "乡": 253,
      "书": 254,
      "乩": 255,
      "乭": 256,
      "买": 257,
      "乱": 258,
      "乳": 259,
      "乾": 260,
      "了": 261,
      "予": 262,
      "争": 263,
      "事": 264,
      "二": 265,
      "于": 266,
      "亏": 267,
      "云": 268,
      "互": 269,
      "亓": 270,
      "五": 271,
      "井": 272,
      "亘": 273,
      "亚": 274,
      "些": 275,
      "亟": 276,
      "亡": 277,
      "亢": 278,
      "交": 279,
      "亥": 280,
      "亦": 281,
      "产": 282,
      "亨": 283,
      "亩": 284,
      "享": 285,
      "京": 286,
      "亭": 287,
      "亮": 288,
      "亲": 289,
      "亳": 290,
      "亵": 291,
      "亶": 292,
      "人": 293,
      "亿": 294,
      "什": 295,
      "仁": 296,
      "仂": 297,
      "仃": 298,
      "仅": 299,
      "仆": 300,
      "仇": 301,
      "今": 302,
      "介": 303,
      "仍": 304,
      "从": 305,
      "仑": 306,
      "仓": 307,
      "仔": 308,
      "仕": 309,
      "他": 310,
      "仗": 311,
      "付": 312,
      "仙": 313,
      "仡": 314,
      "代": 315,
      "令": 316,
      "以": 317,
      "仪": 318,
      "仫": 319,
      "们": 320,
      "仰": 321,
      "仲": 322,
      "件": 323,
      "价": 324,
      "任": 325,
      "份": 326,
      "仿": 327,
      "企": 328,
      "伉": 329,
      "伊": 330,
      "伋": 331,
      "伍": 332,
      "伎": 333,
      "伏": 334,
      "伐": 335,
      "休": 336,
      "伕": 337,
      "众": 338,
      "优": 339,
      "伙": 340,
      "会": 341,
      "伞": 342,
      "伟": 343,
      "传": 344,
      "伤": 345,
      "伦": 346,
      "伪": 347,
      "伫": 348,
      "伯": 349,
      "估": 350,
      "伴": 351,
      "伶": 352,
      "伸": 353,
      "伺": 354,
      "似": 355,
      "伽": 356,
      "佃": 357,
      "但": 358,
      "位": 359,
      "低": 360,
      "住": 361,
      "佐": 362,
      "佑": 363,
      "体": 364,
      "何": 365,
      "佗": 366,
      "佘": 367,
      "余": 368,
      "佚": 369,
      "佛": 370,
      "作": 371,
      "佟": 372,
      "你": 373,
      "佣": 374,
      "佤": 375,
      "佩": 376,
      "佬": 377,
      "佯": 378,
      "佰": 379,
      "佳": 380,
      "使": 381,
      "侁": 382,
      "侂": 383,
      "侄": 384,
      "侈": 385,
      "例": 386,
      "侍": 387,
      "侏": 388,
      "侑": 389,
      "侗": 390,
      "供": 391,
      "依": 392,
      "侠": 393,
      "侣": 394,
      "侦": 395,
      "侧": 396,
      "侨": 397,
      "侪": 398,
      "侬": 399,
      "侮": 400,
      "侯": 401,
      "侵": 402,
      "便": 403,
      "促": 404,
      "俄": 405,
      "俊": 406,
      "俎": 407,
      "俏": 408,
      "俐": 409,
      "俑": 410,
      "俗": 411,
      "俘": 412,
      "俚": 413,
      "保": 414,
      "俞": 415,
      "俟": 416,
      "信": 417,
      "俨": 418,
      "俩": 419,
      "俪": 420,
      "俭": 421,
      "修": 422,
      "俯": 423,
      "俱": 424,
      "俶": 425,
      "俸": 426,
      "俺": 427,
      "俾": 428,
      "倍": 429,
      "倒": 430,
      "倘": 431,
      "候": 432,
      "倚": 433,
      "借": 434,
      "倡": 435,
      "倦": 436,
      "倩": 437,
      "倪": 438,
      "倬": 439,
      "倭": 440,
      "倮": 441,
      "债": 442,
      "值": 443,
      "倾": 444,
      "偃": 445,
      "假": 446,
      "偌": 447,
      "偏": 448,
      "偕": 449,
      "做": 450,
      "停": 451,
      "健": 452,
      "偶": 453,
      "偷": 454,
      "偿": 455,
      "傀": 456,
      "傅": 457,
      "傈": 458,
      "傍": 459,
      "傚": 460,
      "傣": 461,
      "储": 462,
      "傩": 463,
      "催": 464,
      "傲": 465,
      "像": 466,
      "僖": 467,
      "僚": 468,
      "僧": 469,
      "僭": 470,
      "僮": 471,
      "僳": 472,
      "僵": 473,
      "儋": 474,
      "儒": 475,
      "儡": 476,
      "儿": 477,
      "兀": 478,
      "允": 479,
      "元": 480,
      "兄": 481,
      "充": 482,
      "兆": 483,
      "先": 484,
      "光": 485,
      "克": 486,
      "免": 487,
      "兑": 488,
      "兔": 489,
      "兖": 490,
      "党": 491,
      "兜": 492,
      "入": 493,
      "全": 494,
      "八": 495,
      "公": 496,
      "六": 497,
      "兰": 498,
      "共": 499,
      "关": 500,
      "兴": 501,
      "兵": 502,
      "其": 503,
      "具": 504,
      "典": 505,
      "兹": 506,
      "养": 507,
      "兼": 508,
      "兽": 509,
      "冀": 510,
      "内": 511,
      "冈": 512,
      "冉": 513,
      "册": 514,
      "再": 515,
      "冒": 516,
      "冕": 517,
      "冗": 518,
      "写": 519,
      "军": 520,
      "农": 521,
      "冠": 522,
      "冢": 523,
      "冤": 524,
      "冥": 525,
      "冬": 526,
      "冯": 527,
      "冰": 528,
      "冲": 529,
      "决": 530,
      "况": 531,
      "冶": 532,
      "冷": 533,
      "冻": 534,
      "冼": 535,
      "净": 536,
      "准": 537,
      "凉": 538,
      "凋": 539,
      "凌": 540,
      "减": 541,
      "凛": 542,
      "凝": 543,
      "几": 544,
      "凡": 545,
      "凤": 546,
      "凫": 547,
      "凭": 548,
      "凯": 549,
      "凰": 550,
      "凳": 551,
      "凶": 552,
      "凸": 553,
      "凹": 554,
      "出": 555,
      "击": 556,
      "函": 557,
      "凿": 558,
      "刀": 559,
      "刁": 560,
      "刃": 561,
      "分": 562,
      "切": 563,
      "刊": 564,
      "刍": 565,
      "刎": 566,
      "刑": 567,
      "划": 568,
      "列": 569,
      "刘": 570,
      "则": 571,
      "刚": 572,
      "创": 573,
      "初": 574,
      "删": 575,
      "判": 576,
      "刨": 577,
      "利": 578,
      "别": 579,
      "刮": 580,
      "到": 581,
      "制": 582,
      "刷": 583,
      "券": 584,
      "刹": 585,
      "刺": 586,
      "刻": 587,
      "刽": 588,
      "剂": 589,
      "剃": 590,
      "削": 591,
      "剌": 592,
      "前": 593,
      "剑": 594,
      "剔": 595,
      "剖": 596,
      "剥": 597,
      "剧": 598,
      "剩": 599,
      "剪": 600,
      "副": 601,
      "割": 602,
      "剿": 603,
      "劈": 604,
      "力": 605,
      "劝": 606,
      "办": 607,
      "功": 608,
      "加": 609,
      "务": 610,
      "劢": 611,
      "劣": 612,
      "动": 613,
      "助": 614,
      "努": 615,
      "劫": 616,
      "励": 617,
      "劲": 618,
      "劳": 619,
      "劵": 620,
      "劻": 621,
      "劼": 622,
      "劾": 623,
      "势": 624,
      "勃": 625,
      "勇": 626,
      "勉": 627,
      "勋": 628,
      "勒": 629,
      "勖": 630,
      "勘": 631,
      "募": 632,
      "勤": 633,
      "勺": 634,
      "勾": 635,
      "勿": 636,
      "匀": 637,
      "包": 638,
      "匆": 639,
      "匈": 640,
      "匍": 641,
      "匐": 642,
      "化": 643,
      "北": 644,
      "匠": 645,
      "匡": 646,
      "匣": 647,
      "匪": 648,
      "匮": 649,
      "匹": 650,
      "区": 651,
      "医": 652,
      "匾": 653,
      "匿": 654,
      "十": 655,
      "千": 656,
      "卅": 657,
      "升": 658,
      "午": 659,
      "卉": 660,
      "半": 661,
      "卍": 662,
      "华": 663,
      "协": 664,
      "卑": 665,
      "卒": 666,
      "卓": 667,
      "单": 668,
      "卖": 669,
      "南": 670,
      "博": 671,
      "卜": 672,
      "占": 673,
      "卡": 674,
      "卢": 675,
      "卤": 676,
      "卦": 677,
      "卧": 678,
      "卫": 679,
      "卯": 680,
      "印": 681,
      "危": 682,
      "即": 683,
      "却": 684,
      "卵": 685,
      "卷": 686,
      "卸": 687,
      "卿": 688,
      "厂": 689,
      "厄": 690,
      "厅": 691,
      "历": 692,
      "厉": 693,
      "压": 694,
      "厌": 695,
      "厘": 696,
      "厚": 697,
      "厝": 698,
      "原": 699,
      "厢": 700,
      "厥": 701,
      "厦": 702,
      "厨": 703,
      "厮": 704,
      "厰": 705,
      "去": 706,
      "县": 707,
      "参": 708,
      "又": 709,
      "叉": 710,
      "及": 711,
      "友": 712,
      "双": 713,
      "反": 714,
      "发": 715,
      "叔": 716,
      "取": 717,
      "受": 718,
      "变": 719,
      "叙": 720,
      "叛": 721,
      "叟": 722,
      "叠": 723,
      "叡": 724,
      "口": 725,
      "古": 726,
      "句": 727,
      "另": 728,
      "只": 729,
      "叫": 730,
      "召": 731,
      "叭": 732,
      "可": 733,
      "台": 734,
      "叱": 735,
      "史": 736,
      "右": 737,
      "叶": 738,
      "号": 739,
      "司": 740,
      "叹": 741,
      "叽": 742,
      "吁": 743,
      "吃": 744,
      "各": 745,
      "合": 746,
      "吉": 747,
      "吊": 748,
      "同": 749,
      "名": 750,
      "后": 751,
      "吏": 752,
      "吐": 753,
      "向": 754,
      "吒": 755,
      "吓": 756,
      "吕": 757,
      "吗": 758,
      "君": 759,
      "吞": 760,
      "吟": 761,
      "吠": 762,
      "否": 763,
      "吧": 764,
      "吨": 765,
      "含": 766,
      "听": 767,
      "启": 768,
      "吲": 769,
      "吴": 770,
      "吵": 771,
      "吸": 772,
      "吹": 773,
      "吻": 774,
      "吾": 775,
      "呀": 776,
      "呆": 777,
      "呈": 778,
      "告": 779,
      "呎": 780,
      "呐": 781,
      "呕": 782,
      "员": 783,
      "呢": 784,
      "呤": 785,
      "呦": 786,
      "周": 787,
      "呱": 788,
      "味": 789,
      "呼": 790,
      "命": 791,
      "咀": 792,
      "咆": 793,
      "咋": 794,
      "和": 795,
      "咎": 796,
      "咏": 797,
      "咒": 798,
      "咖": 799,
      "咤": 800,
      "咨": 801,
      "咩": 802,
      "咪": 803,
      "咬": 804,
      "咱": 805,
      "咸": 806,
      "咽": 807,
      "哀": 808,
      "品": 809,
      "哆": 810,
      "哇": 811,
      "哈": 812,
      "哉": 813,
      "响": 814,
      "哑": 815,
      "哒": 816,
      "哔": 817,
      "哗": 818,
      "哙": 819,
      "哚": 820,
      "哥": 821,
      "哨": 822,
      "哩": 823,
      "哪": 824,
      "哭": 825,
      "哮": 826,
      "哲": 827,
      "哺": 828,
      "哼": 829,
      "唁": 830,
      "唃": 831,
      "唆": 832,
      "唇": 833,
      "唎": 834,
      "唐": 835,
      "唢": 836,
      "唤": 837,
      "售": 838,
      "唯": 839,
      "唱": 840,
      "唾": 841,
      "啄": 842,
      "商": 843,
      "啊": 844,
      "啡": 845,
      "啤": 846,
      "啦": 847,
      "啬": 848,
      "啮": 849,
      "啰": 850,
      "啸": 851,
      "喀": 852,
      "喂": 853,
      "善": 854,
      "喇": 855,
      "喉": 856,
      "喊": 857,
      "喋": 858,
      "喘": 859,
      "喜": 860,
      "喝": 861,
      "喧": 862,
      "喷": 863,
      "喻": 864,
      "喾": 865,
      "嗓": 866,
      "嗜": 867,
      "嗣": 868,
      "嗨": 869,
      "嗽": 870,
      "嗾": 871,
      "嘉": 872,
      "嘌": 873,
      "嘎": 874,
      "嘘": 875,
      "嘛": 876,
      "嘱": 877,
      "嘲": 878,
      "嘴": 879,
      "嘻": 880,
      "嘿": 881,
      "器": 882,
      "噪": 883,
      "噶": 884,
      "嚈": 885,
      "嚏": 886,
      "嚣": 887,
      "嚼": 888,
      "囊": 889,
      "囚": 890,
      "四": 891,
      "回": 892,
      "囟": 893,
      "因": 894,
      "团": 895,
      "囧": 896,
      "园": 897,
      "困": 898,
      "围": 899,
      "固": 900,
      "国": 901,
      "图": 902,
      "圃": 903,
      "圆": 904,
      "圈": 905,
      "圉": 906,
      "土": 907,
      "圣": 908,
      "在": 909,
      "圩": 910,
      "圭": 911,
      "地": 912,
      "圳": 913,
      "场": 914,
      "圻": 915,
      "圾": 916,
      "址": 917,
      "坂": 918,
      "均": 919,
      "坊": 920,
      "坍": 921,
      "坎": 922,
      "坏": 923,
      "坐": 924,
      "坑": 925,
      "块": 926,
      "坚": 927,
      "坛": 928,
      "坜": 929,
      "坝": 930,
      "坞": 931,
      "坟": 932,
      "坠": 933,
      "坡": 934,
      "坤": 935,
      "坦": 936,
      "坪": 937,
      "坳": 938,
      "坻": 939,
      "垂": 940,
      "垃": 941,
      "垄": 942,
      "型": 943,
      "垒": 944,
      "垓": 945,
      "垟": 946,
      "垢": 947,
      "垣": 948,
      "垦": 949,
      "垫": 950,
      "垭": 951,
      "垮": 952,
      "埃": 953,
      "埋": 954,
      "城": 955,
      "埔": 956,
      "域": 957,
      "埠": 958,
      "埭": 959,
      "培": 960,
      "基": 961,
      "堂": 962,
      "堃": 963,
      "堆": 964,
      "堇": 965,
      "堕": 966,
      "堠": 967,
      "堡": 968,
      "堤": 969,
      "堧": 970,
      "堪": 971,
      "堰": 972,
      "堵": 973,
      "塌": 974,
      "塑": 975,
      "塔": 976,
      "塘": 977,
      "塞": 978,
      "填": 979,
      "塬": 980,
      "塽": 981,
      "塾": 982,
      "墀": 983,
      "境": 984,
      "墅": 985,
      "墓": 986,
      "墙": 987,
      "增": 988,
      "墟": 989,
      "墨": 990,
      "墩": 991,
      "墪": 992,
      "壁": 993,
      "壅": 994,
      "壑": 995,
      "壕": 996,
      "壤": 997,
      "士": 998,
      "壬": 999,
      "壮": 1000,
      "声": 1001,
      "壳": 1002,
      "壶": 1003,
      "壹": 1004,
      "处": 1005,
      "备": 1006,
      "复": 1007,
      "夏": 1008,
      "夔": 1009,
      "夕": 1010,
      "外": 1011,
      "多": 1012,
      "夜": 1013,
      "够": 1014,
      "大": 1015,
      "天": 1016,
      "太": 1017,
      "夫": 1018,
      "央": 1019,
      "夯": 1020,
      "失": 1021,
      "头": 1022,
      "夷": 1023,
      "夸": 1024,
      "夹": 1025,
      "夺": 1026,
      "奂": 1027,
      "奄": 1028,
      "奇": 1029,
      "奈": 1030,
      "奉": 1031,
      "奋": 1032,
      "奎": 1033,
      "奏": 1034,
      "契": 1035,
      "奔": 1036,
      "奕": 1037,
      "奖": 1038,
      "套": 1039,
      "奘": 1040,
      "奚": 1041,
      "奠": 1042,
      "奢": 1043,
      "奥": 1044,
      "奭": 1045,
      "女": 1046,
      "奴": 1047,
      "奶": 1048,
      "奸": 1049,
      "她": 1050,
      "好": 1051,
      "妁": 1052,
      "如": 1053,
      "妃": 1054,
      "妄": 1055,
      "妆": 1056,
      "妇": 1057,
      "妈": 1058,
      "妓": 1059,
      "妖": 1060,
      "妙": 1061,
      "妠": 1062,
      "妤": 1063,
      "妥": 1064,
      "妨": 1065,
      "妮": 1066,
      "妲": 1067,
      "妹": 1068,
      "妻": 1069,
      "妾": 1070,
      "姆": 1071,
      "姊": 1072,
      "始": 1073,
      "姐": 1074,
      "姑": 1075,
      "姒": 1076,
      "姓": 1077,
      "委": 1078,
      "姚": 1079,
      "姜": 1080,
      "姬": 1081,
      "姻": 1082,
      "姿": 1083,
      "娀": 1084,
      "威": 1085,
      "娃": 1086,
      "娄": 1087,
      "娅": 1088,
      "娇": 1089,
      "娘": 1090,
      "娜": 1091,
      "娟": 1092,
      "娥": 1093,
      "娱": 1094,
      "娲": 1095,
      "娴": 1096,
      "娶": 1097,
      "娼": 1098,
      "婆": 1099,
      "婉": 1100,
      "婕": 1101,
      "婚": 1102,
      "婢": 1103,
      "婪": 1104,
      "婴": 1105,
      "婷": 1106,
      "婺": 1107,
      "婿": 1108,
      "媒": 1109,
      "媚": 1110,
      "媛": 1111,
      "媲": 1112,
      "媳": 1113,
      "嫁": 1114,
      "嫂": 1115,
      "嫉": 1116,
      "嫌": 1117,
      "嫔": 1118,
      "嫡": 1119,
      "嫣": 1120,
      "嫦": 1121,
      "嫩": 1122,
      "嬉": 1123,
      "嬖": 1124,
      "嬗": 1125,
      "嬴": 1126,
      "子": 1127,
      "孑": 1128,
      "孓": 1129,
      "孔": 1130,
      "孕": 1131,
      "字": 1132,
      "存": 1133,
      "孙": 1134,
      "孚": 1135,
      "孛": 1136,
      "孜": 1137,
      "孝": 1138,
      "孟": 1139,
      "孢": 1140,
      "季": 1141,
      "孤": 1142,
      "学": 1143,
      "孩": 1144,
      "孪": 1145,
      "孱": 1146,
      "孵": 1147,
      "孺": 1148,
      "孽": 1149,
      "宀": 1150,
      "宁": 1151,
      "它": 1152,
      "宅": 1153,
      "宇": 1154,
      "守": 1155,
      "安": 1156,
      "宋": 1157,
      "完": 1158,
      "宏": 1159,
      "宗": 1160,
      "官": 1161,
      "宙": 1162,
      "定": 1163,
      "宛": 1164,
      "宜": 1165,
      "宝": 1166,
      "实": 1167,
      "実": 1168,
      "宠": 1169,
      "审": 1170,
      "客": 1171,
      "宣": 1172,
      "室": 1173,
      "宥": 1174,
      "宦": 1175,
      "宧": 1176,
      "宪": 1177,
      "宫": 1178,
      "宰": 1179,
      "害": 1180,
      "宴": 1181,
      "宵": 1182,
      "家": 1183,
      "宸": 1184,
      "容": 1185,
      "宽": 1186,
      "宾": 1187,
      "宿": 1188,
      "寂": 1189,
      "寄": 1190,
      "寅": 1191,
      "密": 1192,
      "寇": 1193,
      "富": 1194,
      "寒": 1195,
      "寓": 1196,
      "寝": 1197,
      "察": 1198,
      "寡": 1199,
      "寥": 1200,
      "寨": 1201,
      "寮": 1202,
      "寰": 1203,
      "寸": 1204,
      "对": 1205,
      "寺": 1206,
      "寻": 1207,
      "导": 1208,
      "寿": 1209,
      "封": 1210,
      "射": 1211,
      "尅": 1212,
      "将": 1213,
      "尉": 1214,
      "尊": 1215,
      "小": 1216,
      "少": 1217,
      "尔": 1218,
      "尕": 1219,
      "尖": 1220,
      "尘": 1221,
      "尚": 1222,
      "尝": 1223,
      "尤": 1224,
      "尧": 1225,
      "就": 1226,
      "尸": 1227,
      "尹": 1228,
      "尺": 1229,
      "尼": 1230,
      "尽": 1231,
      "尾": 1232,
      "尿": 1233,
      "局": 1234,
      "屁": 1235,
      "层": 1236,
      "居": 1237,
      "屈": 1238,
      "届": 1239,
      "屋": 1240,
      "屏": 1241,
      "屐": 1242,
      "屑": 1243,
      "展": 1244,
      "属": 1245,
      "屠": 1246,
      "屡": 1247,
      "履": 1248,
      "屯": 1249,
      "山": 1250,
      "屹": 1251,
      "屿": 1252,
      "岁": 1253,
      "岂": 1254,
      "岈": 1255,
      "岌": 1256,
      "岐": 1257,
      "岑": 1258,
      "岔": 1259,
      "岖": 1260,
      "岗": 1261,
      "岘": 1262,
      "岚": 1263,
      "岛": 1264,
      "岩": 1265,
      "岫": 1266,
      "岭": 1267,
      "岱": 1268,
      "岳": 1269,
      "岷": 1270,
      "岸": 1271,
      "峋": 1272,
      "峒": 1273,
      "峙": 1274,
      "峡": 1275,
      "峥": 1276,
      "峦": 1277,
      "峨": 1278,
      "峪": 1279,
      "峭": 1280,
      "峰": 1281,
      "峻": 1282,
      "崂": 1283,
      "崃": 1284,
      "崆": 1285,
      "崇": 1286,
      "崎": 1287,
      "崔": 1288,
      "崖": 1289,
      "崛": 1290,
      "崤": 1291,
      "崧": 1292,
      "崩": 1293,
      "崭": 1294,
      "崮": 1295,
      "崴": 1296,
      "嵊": 1297,
      "嵋": 1298,
      "嵌": 1299,
      "嵖": 1300,
      "嵘": 1301,
      "嵛": 1302,
      "嵩": 1303,
      "嵬": 1304,
      "嶙": 1305,
      "嶲": 1306,
      "巅": 1307,
      "巍": 1308,
      "川": 1309,
      "州": 1310,
      "巡": 1311,
      "巢": 1312,
      "工": 1313,
      "左": 1314,
      "巧": 1315,
      "巨": 1316,
      "巩": 1317,
      "巫": 1318,
      "差": 1319,
      "己": 1320,
      "已": 1321,
      "巴": 1322,
      "巷": 1323,
      "巻": 1324,
      "巽": 1325,
      "巾": 1326,
      "币": 1327,
      "市": 1328,
      "布": 1329,
      "帅": 1330,
      "帆": 1331,
      "师": 1332,
      "希": 1333,
      "帐": 1334,
      "帑": 1335,
      "帔": 1336,
      "帕": 1337,
      "帖": 1338,
      "帘": 1339,
      "帚": 1340,
      "帛": 1341,
      "帜": 1342,
      "帝": 1343,
      "带": 1344,
      "帧": 1345,
      "席": 1346,
      "帮": 1347,
      "帷": 1348,
      "常": 1349,
      "帽": 1350,
      "幂": 1351,
      "幅": 1352,
      "幔": 1353,
      "幕": 1354,
      "幛": 1355,
      "幞": 1356,
      "幡": 1357,
      "幢": 1358,
      "干": 1359,
      "平": 1360,
      "年": 1361,
      "并": 1362,
      "幸": 1363,
      "幺": 1364,
      "幻": 1365,
      "幼": 1366,
      "幽": 1367,
      "广": 1368,
      "庄": 1369,
      "庆": 1370,
      "庇": 1371,
      "床": 1372,
      "序": 1373,
      "庐": 1374,
      "库": 1375,
      "应": 1376,
      "底": 1377,
      "店": 1378,
      "庙": 1379,
      "庚": 1380,
      "府": 1381,
      "庞": 1382,
      "废": 1383,
      "庠": 1384,
      "度": 1385,
      "座": 1386,
      "庭": 1387,
      "庵": 1388,
      "庶": 1389,
      "康": 1390,
      "庸": 1391,
      "庾": 1392,
      "廆": 1393,
      "廉": 1394,
      "廊": 1395,
      "廌": 1396,
      "廑": 1397,
      "廓": 1398,
      "廖": 1399,
      "廨": 1400,
      "延": 1401,
      "廷": 1402,
      "建": 1403,
      "廿": 1404,
      "开": 1405,
      "异": 1406,
      "弃": 1407,
      "弄": 1408,
      "弈": 1409,
      "弊": 1410,
      "弋": 1411,
      "式": 1412,
      "弑": 1413,
      "弓": 1414,
      "引": 1415,
      "弗": 1416,
      "弘": 1417,
      "弛": 1418,
      "弟": 1419,
      "张": 1420,
      "弥": 1421,
      "弦": 1422,
      "弧": 1423,
      "弩": 1424,
      "弭": 1425,
      "弯": 1426,
      "弱": 1427,
      "弹": 1428,
      "强": 1429,
      "弼": 1430,
      "彊": 1431,
      "归": 1432,
      "当": 1433,
      "录": 1434,
      "彖": 1435,
      "彗": 1436,
      "彘": 1437,
      "彝": 1438,
      "形": 1439,
      "彤": 1440,
      "彦": 1441,
      "彧": 1442,
      "彩": 1443,
      "彪": 1444,
      "彬": 1445,
      "彭": 1446,
      "彰": 1447,
      "影": 1448,
      "役": 1449,
      "彻": 1450,
      "彼": 1451,
      "往": 1452,
      "征": 1453,
      "径": 1454,
      "待": 1455,
      "很": 1456,
      "徊": 1457,
      "律": 1458,
      "徐": 1459,
      "徒": 1460,
      "徕": 1461,
      "得": 1462,
      "徘": 1463,
      "徙": 1464,
      "御": 1465,
      "循": 1466,
      "徭": 1467,
      "微": 1468,
      "德": 1469,
      "徽": 1470,
      "心": 1471,
      "必": 1472,
      "忆": 1473,
      "忌": 1474,
      "忍": 1475,
      "志": 1476,
      "忘": 1477,
      "忙": 1478,
      "忠": 1479,
      "忡": 1480,
      "忧": 1481,
      "快": 1482,
      "忱": 1483,
      "念": 1484,
      "忻": 1485,
      "忽": 1486,
      "怀": 1487,
      "态": 1488,
      "怎": 1489,
      "怒": 1490,
      "怕": 1491,
      "怖": 1492,
      "怜": 1493,
      "思": 1494,
      "怠": 1495,
      "怡": 1496,
      "急": 1497,
      "性": 1498,
      "怨": 1499,
      "怪": 1500,
      "总": 1501,
      "怿": 1502,
      "恋": 1503,
      "恍": 1504,
      "恐": 1505,
      "恒": 1506,
      "恕": 1507,
      "恚": 1508,
      "恢": 1509,
      "恤": 1510,
      "恨": 1511,
      "恩": 1512,
      "恪": 1513,
      "恬": 1514,
      "恭": 1515,
      "息": 1516,
      "恰": 1517,
      "恳": 1518,
      "恶": 1519,
      "恸": 1520,
      "恺": 1521,
      "恼": 1522,
      "悄": 1523,
      "悉": 1524,
      "悌": 1525,
      "悔": 1526,
      "悖": 1527,
      "悚": 1528,
      "悝": 1529,
      "悟": 1530,
      "悠": 1531,
      "患": 1532,
      "悦": 1533,
      "悬": 1534,
      "悲": 1535,
      "悺": 1536,
      "悼": 1537,
      "情": 1538,
      "惇": 1539,
      "惊": 1540,
      "惑": 1541,
      "惕": 1542,
      "惚": 1543,
      "惜": 1544,
      "惟": 1545,
      "惠": 1546,
      "惧": 1547,
      "惨": 1548,
      "惩": 1549,
      "惫": 1550,
      "惮": 1551,
      "惯": 1552,
      "惰": 1553,
      "想": 1554,
      "惶": 1555,
      "愈": 1556,
      "愉": 1557,
      "愍": 1558,
      "愎": 1559,
      "意": 1560,
      "愚": 1561,
      "感": 1562,
      "愤": 1563,
      "愧": 1564,
      "愿": 1565,
      "慈": 1566,
      "慌": 1567,
      "慎": 1568,
      "慑": 1569,
      "慕": 1570,
      "慢": 1571,
      "慧": 1572,
      "慨": 1573,
      "慰": 1574,
      "慵": 1575,
      "慷": 1576,
      "憎": 1577,
      "憨": 1578,
      "憩": 1579,
      "憾": 1580,
      "懂": 1581,
      "懈": 1582,
      "懋": 1583,
      "懒": 1584,
      "懽": 1585,
      "懿": 1586,
      "戈": 1587,
      "戊": 1588,
      "戌": 1589,
      "戍": 1590,
      "戎": 1591,
      "戏": 1592,
      "成": 1593,
      "我": 1594,
      "戒": 1595,
      "或": 1596,
      "战": 1597,
      "戚": 1598,
      "戛": 1599,
      "戟": 1600,
      "戡": 1601,
      "截": 1602,
      "戮": 1603,
      "戳": 1604,
      "戴": 1605,
      "户": 1606,
      "戾": 1607,
      "房": 1608,
      "所": 1609,
      "扁": 1610,
      "扃": 1611,
      "扇": 1612,
      "扈": 1613,
      "手": 1614,
      "才": 1615,
      "扎": 1616,
      "扑": 1617,
      "扒": 1618,
      "打": 1619,
      "托": 1620,
      "扣": 1621,
      "执": 1622,
      "扩": 1623,
      "扫": 1624,
      "扬": 1625,
      "扭": 1626,
      "扮": 1627,
      "扯": 1628,
      "扰": 1629,
      "扳": 1630,
      "扶": 1631,
      "批": 1632,
      "找": 1633,
      "承": 1634,
      "技": 1635,
      "抄": 1636,
      "抉": 1637,
      "把": 1638,
      "抑": 1639,
      "抒": 1640,
      "抓": 1641,
      "投": 1642,
      "抖": 1643,
      "抗": 1644,
      "折": 1645,
      "抚": 1646,
      "抛": 1647,
      "抟": 1648,
      "抢": 1649,
      "护": 1650,
      "报": 1651,
      "抨": 1652,
      "披": 1653,
      "抬": 1654,
      "抱": 1655,
      "抵": 1656,
      "抹": 1657,
      "押": 1658,
      "抽": 1659,
      "抿": 1660,
      "拂": 1661,
      "担": 1662,
      "拆": 1663,
      "拉": 1664,
      "拌": 1665,
      "拍": 1666,
      "拐": 1667,
      "拒": 1668,
      "拓": 1669,
      "拔": 1670,
      "拖": 1671,
      "拗": 1672,
      "拘": 1673,
      "拙": 1674,
      "拚": 1675,
      "招": 1676,
      "拜": 1677,
      "拟": 1678,
      "拢": 1679,
      "拥": 1680,
      "拦": 1681,
      "拨": 1682,
      "择": 1683,
      "括": 1684,
      "拮": 1685,
      "拯": 1686,
      "拱": 1687,
      "拳": 1688,
      "拷": 1689,
      "拼": 1690,
      "拽": 1691,
      "拾": 1692,
      "拿": 1693,
      "持": 1694,
      "挂": 1695,
      "指": 1696,
      "按": 1697,
      "挑": 1698,
      "挖": 1699,
      "挚": 1700,
      "挝": 1701,
      "挟": 1702,
      "挠": 1703,
      "挡": 1704,
      "挣": 1705,
      "挤": 1706,
      "挥": 1707,
      "挨": 1708,
      "挪": 1709,
      "挫": 1710,
      "振": 1711,
      "挺": 1712,
      "挽": 1713,
      "捅": 1714,
      "捆": 1715,
      "捉": 1716,
      "捌": 1717,
      "捍": 1718,
      "捏": 1719,
      "捐": 1720,
      "捕": 1721,
      "捞": 1722,
      "损": 1723,
      "换": 1724,
      "捣": 1725,
      "捧": 1726,
      "捩": 1727,
      "据": 1728,
      "捶": 1729,
      "捷": 1730,
      "捺": 1731,
      "捻": 1732,
      "捽": 1733,
      "掀": 1734,
      "授": 1735,
      "掉": 1736,
      "掌": 1737,
      "排": 1738,
      "掖": 1739,
      "掘": 1740,
      "掠": 1741,
      "探": 1742,
      "接": 1743,
      "控": 1744,
      "推": 1745,
      "掩": 1746,
      "措": 1747,
      "掳": 1748,
      "掷": 1749,
      "掸": 1750,
      "掺": 1751,
      "描": 1752,
      "提": 1753,
      "插": 1754,
      "揖": 1755,
      "握": 1756,
      "揣": 1757,
      "揭": 1758,
      "援": 1759,
      "揹": 1760,
      "揽": 1761,
      "搁": 1762,
      "搅": 1763,
      "搆": 1764,
      "搏": 1765,
      "搜": 1766,
      "搞": 1767,
      "搣": 1768,
      "搬": 1769,
      "搭": 1770,
      "携": 1771,
      "摄": 1772,
      "摆": 1773,
      "摇": 1774,
      "摈": 1775,
      "摊": 1776,
      "摒": 1777,
      "摔": 1778,
      "摘": 1779,
      "摧": 1780,
      "摩": 1781,
      "摰": 1782,
      "摸": 1783,
      "摹": 1784,
      "撑": 1785,
      "撒": 1786,
      "撕": 1787,
      "撞": 1788,
      "撤": 1789,
      "撬": 1790,
      "播": 1791,
      "撰": 1792,
      "撷": 1793,
      "撼": 1794,
      "擂": 1795,
      "擅": 1796,
      "操": 1797,
      "擎": 1798,
      "擒": 1799,
      "擘": 1800,
      "擢": 1801,
      "擦": 1802,
      "擧": 1803,
      "攀": 1804,
      "攘": 1805,
      "支": 1806,
      "攴": 1807,
      "收": 1808,
      "改": 1809,
      "攻": 1810,
      "放": 1811,
      "政": 1812,
      "故": 1813,
      "效": 1814,
      "敌": 1815,
      "敍": 1816,
      "敏": 1817,
      "救": 1818,
      "敕": 1819,
      "敖": 1820,
      "教": 1821,
      "敛": 1822,
      "敝": 1823,
      "敞": 1824,
      "敢": 1825,
      "散": 1826,
      "敦": 1827,
      "敬": 1828,
      "数": 1829,
      "敲": 1830,
      "整": 1831,
      "敷": 1832,
      "文": 1833,
      "斋": 1834,
      "斌": 1835,
      "斐": 1836,
      "斑": 1837,
      "斗": 1838,
      "料": 1839,
      "斛": 1840,
      "斜": 1841,
      "斟": 1842,
      "斡": 1843,
      "斤": 1844,
      "斥": 1845,
      "斧": 1846,
      "斩": 1847,
      "断": 1848,
      "斯": 1849,
      "新": 1850,
      "方": 1851,
      "於": 1852,
      "施": 1853,
      "旁": 1854,
      "旃": 1855,
      "旅": 1856,
      "旋": 1857,
      "旌": 1858,
      "旎": 1859,
      "族": 1860,
      "旒": 1861,
      "旖": 1862,
      "旗": 1863,
      "无": 1864,
      "既": 1865,
      "日": 1866,
      "旦": 1867,
      "旧": 1868,
      "旨": 1869,
      "早": 1870,
      "旬": 1871,
      "旱": 1872,
      "时": 1873,
      "旷": 1874,
      "旺": 1875,
      "昂": 1876,
      "昆": 1877,
      "昉": 1878,
      "昊": 1879,
      "昌": 1880,
      "明": 1881,
      "昏": 1882,
      "易": 1883,
      "昔": 1884,
      "昕": 1885,
      "昙": 1886,
      "星": 1887,
      "映": 1888,
      "春": 1889,
      "昧": 1890,
      "昪": 1891,
      "昭": 1892,
      "是": 1893,
      "昱": 1894,
      "昵": 1895,
      "昶": 1896,
      "昺": 1897,
      "昼": 1898,
      "显": 1899,
      "晁": 1900,
      "晃": 1901,
      "晋": 1902,
      "晏": 1903,
      "晒": 1904,
      "晓": 1905,
      "晕": 1906,
      "晖": 1907,
      "晙": 1908,
      "晚": 1909,
      "晤": 1910,
      "晦": 1911,
      "晨": 1912,
      "普": 1913,
      "景": 1914,
      "晰": 1915,
      "晴": 1916,
      "晶": 1917,
      "晷": 1918,
      "智": 1919,
      "晾": 1920,
      "暂": 1921,
      "暇": 1922,
      "暑": 1923,
      "暖": 1924,
      "暗": 1925,
      "暨": 1926,
      "暮": 1927,
      "暴": 1928,
      "暹": 1929,
      "曙": 1930,
      "曜": 1931,
      "曝": 1932,
      "曰": 1933,
      "曲": 1934,
      "曳": 1935,
      "更": 1936,
      "曷": 1937,
      "曹": 1938,
      "曼": 1939,
      "曾": 1940,
      "替": 1941,
      "最": 1942,
      "月": 1943,
      "有": 1944,
      "朊": 1945,
      "朋": 1946,
      "服": 1947,
      "朐": 1948,
      "朔": 1949,
      "朕": 1950,
      "朗": 1951,
      "望": 1952,
      "朝": 1953,
      "期": 1954,
      "朦": 1955,
      "木": 1956,
      "未": 1957,
      "末": 1958,
      "本": 1959,
      "札": 1960,
      "术": 1961,
      "朱": 1962,
      "朴": 1963,
      "朵": 1964,
      "机": 1965,
      "朽": 1966,
      "杀": 1967,
      "杂": 1968,
      "权": 1969,
      "杆": 1970,
      "杉": 1971,
      "李": 1972,
      "杏": 1973,
      "材": 1974,
      "村": 1975,
      "杖": 1976,
      "杜": 1977,
      "杞": 1978,
      "束": 1979,
      "杠": 1980,
      "条": 1981,
      "来": 1982,
      "杨": 1983,
      "杭": 1984,
      "杯": 1985,
      "杰": 1986,
      "杲": 1987,
      "杷": 1988,
      "杼": 1989,
      "松": 1990,
      "板": 1991,
      "极": 1992,
      "构": 1993,
      "枇": 1994,
      "析": 1995,
      "枕": 1996,
      "林": 1997,
      "枚": 1998,
      "果": 1999,
      "枝": 2000,
      "枢": 2001,
      "枣": 2002,
      "枥": 2003,
      "枪": 2004,
      "枫": 2005,
      "枯": 2006,
      "枳": 2007,
      "架": 2008,
      "枷": 2009,
      "枸": 2010,
      "枹": 2011,
      "柄": 2012,
      "柏": 2013,
      "某": 2014,
      "柑": 2015,
      "染": 2016,
      "柔": 2017,
      "柘": 2018,
      "柚": 2019,
      "柜": 2020,
      "柞": 2021,
      "柠": 2022,
      "查": 2023,
      "柩": 2024,
      "柬": 2025,
      "柯": 2026,
      "柱": 2027,
      "柳": 2028,
      "柴": 2029,
      "柷": 2030,
      "柿": 2031,
      "标": 2032,
      "栉": 2033,
      "栋": 2034,
      "栎": 2035,
      "栏": 2036,
      "树": 2037,
      "栓": 2038,
      "栖": 2039,
      "栗": 2040,
      "校": 2041,
      "栩": 2042,
      "株": 2043,
      "栱": 2044,
      "栲": 2045,
      "栳": 2046,
      "样": 2047,
      "核": 2048,
      "根": 2049,
      "格": 2050,
      "栽": 2051,
      "栾": 2052,
      "桀": 2053,
      "桂": 2054,
      "桃": 2055,
      "框": 2056,
      "案": 2057,
      "桉": 2058,
      "桌": 2059,
      "桐": 2060,
      "桑": 2061,
      "桓": 2062,
      "桔": 2063,
      "桕": 2064,
      "桢": 2065,
      "档": 2066,
      "桥": 2067,
      "桦": 2068,
      "桧": 2069,
      "桩": 2070,
      "桫": 2071,
      "桶": 2072,
      "桷": 2073,
      "梁": 2074,
      "梅": 2075,
      "梆": 2076,
      "梓": 2077,
      "梗": 2078,
      "梢": 2079,
      "梦": 2080,
      "梧": 2081,
      "梨": 2082,
      "梭": 2083,
      "梯": 2084,
      "械": 2085,
      "梳": 2086,
      "梵": 2087,
      "检": 2088,
      "棉": 2089,
      "棋": 2090,
      "棍": 2091,
      "棒": 2092,
      "棕": 2093,
      "棘": 2094,
      "棚": 2095,
      "棠": 2096,
      "棣": 2097,
      "森": 2098,
      "棱": 2099,
      "棵": 2100,
      "棺": 2101,
      "椁": 2102,
      "椅": 2103,
      "植": 2104,
      "椎": 2105,
      "椒": 2106,
      "椤": 2107,
      "椭": 2108,
      "椰": 2109,
      "椴": 2110,
      "椹": 2111,
      "楔": 2112,
      "楚": 2113,
      "楞": 2114,
      "楷": 2115,
      "楸": 2116,
      "楹": 2117,
      "楼": 2118,
      "概": 2119,
      "榄": 2120,
      "榆": 2121,
      "榈": 2122,
      "榉": 2123,
      "榔": 2124,
      "榕": 2125,
      "榜": 2126,
      "榧": 2127,
      "榨": 2128,
      "榫": 2129,
      "榴": 2130,
      "榷": 2131,
      "榻": 2132,
      "槃": 2133,
      "槐": 2134,
      "様": 2135,
      "槛": 2136,
      "槟": 2137,
      "槪": 2138,
      "槲": 2139,
      "槽": 2140,
      "樊": 2141,
      "樋": 2142,
      "樟": 2143,
      "模": 2144,
      "横": 2145,
      "樵": 2146,
      "樾": 2147,
      "橄": 2148,
      "橘": 2149,
      "橙": 2150,
      "橡": 2151,
      "檀": 2152,
      "檄": 2153,
      "檬": 2154,
      "欠": 2155,
      "次": 2156,
      "欢": 2157,
      "欣": 2158,
      "欧": 2159,
      "欲": 2160,
      "欺": 2161,
      "款": 2162,
      "歆": 2163,
      "歇": 2164,
      "歉": 2165,
      "歌": 2166,
      "歙": 2167,
      "止": 2168,
      "正": 2169,
      "此": 2170,
      "步": 2171,
      "武": 2172,
      "歧": 2173,
      "歪": 2174,
      "歭": 2175,
      "死": 2176,
      "歼": 2177,
      "殁": 2178,
      "殆": 2179,
      "殇": 2180,
      "殉": 2181,
      "殊": 2182,
      "残": 2183,
      "殒": 2184,
      "殓": 2185,
      "殖": 2186,
      "殡": 2187,
      "段": 2188,
      "殷": 2189,
      "殿": 2190,
      "毁": 2191,
      "毅": 2192,
      "毋": 2193,
      "母": 2194,
      "每": 2195,
      "毒": 2196,
      "毓": 2197,
      "比": 2198,
      "毕": 2199,
      "毗": 2200,
      "毙": 2201,
      "毛": 2202,
      "毡": 2203,
      "毫": 2204,
      "毯": 2205,
      "毽": 2206,
      "氏": 2207,
      "氐": 2208,
      "民": 2209,
      "气": 2210,
      "氕": 2211,
      "氘": 2212,
      "氛": 2213,
      "氟": 2214,
      "氢": 2215,
      "氦": 2216,
      "氧": 2217,
      "氨": 2218,
      "氮": 2219,
      "氯": 2220,
      "水": 2221,
      "永": 2222,
      "氹": 2223,
      "汀": 2224,
      "汁": 2225,
      "求": 2226,
      "汇": 2227,
      "汉": 2228,
      "汊": 2229,
      "汐": 2230,
      "汕": 2231,
      "汗": 2232,
      "汛": 2233,
      "汝": 2234,
      "汞": 2235,
      "江": 2236,
      "池": 2237,
      "污": 2238,
      "汤": 2239,
      "汪": 2240,
      "汰": 2241,
      "汲": 2242,
      "汴": 2243,
      "汶": 2244,
      "汽": 2245,
      "汾": 2246,
      "沁": 2247,
      "沂": 2248,
      "沃": 2249,
      "沄": 2250,
      "沅": 2251,
      "沈": 2252,
      "沉": 2253,
      "沌": 2254,
      "沐": 2255,
      "沓": 2256,
      "沔": 2257,
      "沙": 2258,
      "沛": 2259,
      "沟": 2260,
      "没": 2261,
      "沥": 2262,
      "沦": 2263,
      "沧": 2264,
      "沪": 2265,
      "沫": 2266,
      "沮": 2267,
      "沱": 2268,
      "河": 2269,
      "沸": 2270,
      "油": 2271,
      "治": 2272,
      "沼": 2273,
      "沽": 2274,
      "沾": 2275,
      "沿": 2276,
      "泄": 2277,
      "泉": 2278,
      "泊": 2279,
      "泌": 2280,
      "法": 2281,
      "泗": 2282,
      "泚": 2283,
      "泛": 2284,
      "泠": 2285,
      "泡": 2286,
      "波": 2287,
      "泣": 2288,
      "泥": 2289,
      "注": 2290,
      "泮": 2291,
      "泯": 2292,
      "泰": 2293,
      "泳": 2294,
      "泸": 2295,
      "泺": 2296,
      "泼": 2297,
      "泽": 2298,
      "泾": 2299,
      "洁": 2300,
      "洋": 2301,
      "洌": 2302,
      "洒": 2303,
      "洗": 2304,
      "洛": 2305,
      "洞": 2306,
      "津": 2307,
      "洪": 2308,
      "洮": 2309,
      "洱": 2310,
      "洲": 2311,
      "洵": 2312,
      "洺": 2313,
      "活": 2314,
      "洼": 2315,
      "洽": 2316,
      "派": 2317,
      "流": 2318,
      "浅": 2319,
      "浆": 2320,
      "浇": 2321,
      "浊": 2322,
      "测": 2323,
      "浍": 2324,
      "济": 2325,
      "浏": 2326,
      "浑": 2327,
      "浒": 2328,
      "浓": 2329,
      "浔": 2330,
      "浙": 2331,
      "浚": 2332,
      "浜": 2333,
      "浞": 2334,
      "浦": 2335,
      "浩": 2336,
      "浪": 2337,
      "浮": 2338,
      "浴": 2339,
      "海": 2340,
      "浸": 2341,
      "涂": 2342,
      "涅": 2343,
      "消": 2344,
      "涉": 2345,
      "涌": 2346,
      "涑": 2347,
      "涕": 2348,
      "涛": 2349,
      "涝": 2350,
      "涠": 2351,
      "涡": 2352,
      "涣": 2353,
      "涤": 2354,
      "润": 2355,
      "涨": 2356,
      "涩": 2357,
      "涪": 2358,
      "涮": 2359,
      "涯": 2360,
      "液": 2361,
      "涵": 2362,
      "涸": 2363,
      "涿": 2364,
      "淀": 2365,
      "淄": 2366,
      "淆": 2367,
      "淇": 2368,
      "淋": 2369,
      "淌": 2370,
      "淑": 2371,
      "淖": 2372,
      "淘": 2373,
      "淛": 2374,
      "淝": 2375,
      "淞": 2376,
      "淠": 2377,
      "淡": 2378,
      "淤": 2379,
      "淦": 2380,
      "淫": 2381,
      "淮": 2382,
      "深": 2383,
      "淳": 2384,
      "混": 2385,
      "淸": 2386,
      "淹": 2387,
      "添": 2388,
      "清": 2389,
      "渊": 2390,
      "渍": 2391,
      "渎": 2392,
      "渐": 2393,
      "渑": 2394,
      "渔": 2395,
      "渗": 2396,
      "渚": 2397,
      "渝": 2398,
      "渠": 2399,
      "渡": 2400,
      "渣": 2401,
      "渤": 2402,
      "温": 2403,
      "渭": 2404,
      "港": 2405,
      "渲": 2406,
      "渴": 2407,
      "游": 2408,
      "渺": 2409,
      "湄": 2410,
      "湍": 2411,
      "湎": 2412,
      "湖": 2413,
      "湘": 2414,
      "湛": 2415,
      "湟": 2416,
      "湫": 2417,
      "湮": 2418,
      "湼": 2419,
      "湾": 2420,
      "湿": 2421,
      "溃": 2422,
      "溉": 2423,
      "源": 2424,
      "溜": 2425,
      "溟": 2426,
      "溢": 2427,
      "溥": 2428,
      "溧": 2429,
      "溪": 2430,
      "溯": 2431,
      "溱": 2432,
      "溶": 2433,
      "溺": 2434,
      "滁": 2435,
      "滂": 2436,
      "滆": 2437,
      "滇": 2438,
      "滋": 2439,
      "滑": 2440,
      "滓": 2441,
      "滔": 2442,
      "滕": 2443,
      "滚": 2444,
      "滞": 2445,
      "满": 2446,
      "滤": 2447,
      "滥": 2448,
      "滦": 2449,
      "滨": 2450,
      "滩": 2451,
      "滴": 2452,
      "滹": 2453,
      "漂": 2454,
      "漆": 2455,
      "漏": 2456,
      "漓": 2457,
      "演": 2458,
      "漕": 2459,
      "漠": 2460,
      "漪": 2461,
      "漫": 2462,
      "漯": 2463,
      "漱": 2464,
      "漳": 2465,
      "漾": 2466,
      "潇": 2467,
      "潍": 2468,
      "潘": 2469,
      "潜": 2470,
      "潞": 2471,
      "潢": 2472,
      "潦": 2473,
      "潭": 2474,
      "潮": 2475,
      "潺": 2476,
      "潼": 2477,
      "澄": 2478,
      "澍": 2479,
      "澎": 2480,
      "澜": 2481,
      "澳": 2482,
      "澶": 2483,
      "澹": 2484,
      "激": 2485,
      "濂": 2486,
      "濉": 2487,
      "濊": 2488,
      "濒": 2489,
      "濞": 2490,
      "濠": 2491,
      "濬": 2492,
      "濮": 2493,
      "瀑": 2494,
      "瀚": 2495,
      "瀛": 2496,
      "灋": 2497,
      "灌": 2498,
      "灞": 2499,
      "火": 2500,
      "灭": 2501,
      "灯": 2502,
      "灰": 2503,
      "灵": 2504,
      "灶": 2505,
      "灸": 2506,
      "灾": 2507,
      "灿": 2508,
      "炀": 2509,
      "炆": 2510,
      "炉": 2511,
      "炊": 2512,
      "炎": 2513,
      "炒": 2514,
      "炖": 2515,
      "炙": 2516,
      "炜": 2517,
      "炫": 2518,
      "炬": 2519,
      "炭": 2520,
      "炮": 2521,
      "炯": 2522,
      "炳": 2523,
      "炸": 2524,
      "点": 2525,
      "炼": 2526,
      "炽": 2527,
      "烂": 2528,
      "烈": 2529,
      "烘": 2530,
      "烙": 2531,
      "烛": 2532,
      "烟": 2533,
      "烤": 2534,
      "烦": 2535,
      "烧": 2536,
      "烫": 2537,
      "烬": 2538,
      "热": 2539,
      "烯": 2540,
      "烷": 2541,
      "烹": 2542,
      "烽": 2543,
      "焉": 2544,
      "焕": 2545,
      "焖": 2546,
      "焘": 2547,
      "焙": 2548,
      "焚": 2549,
      "焦": 2550,
      "焰": 2551,
      "然": 2552,
      "煊": 2553,
      "煌": 2554,
      "煎": 2555,
      "煣": 2556,
      "煤": 2557,
      "煦": 2558,
      "照": 2559,
      "煨": 2560,
      "煮": 2561,
      "煽": 2562,
      "熊": 2563,
      "熏": 2564,
      "熔": 2565,
      "熙": 2566,
      "熟": 2567,
      "熨": 2568,
      "熬": 2569,
      "熵": 2570,
      "熹": 2571,
      "燃": 2572,
      "燕": 2573,
      "燥": 2574,
      "燧": 2575,
      "燮": 2576,
      "燹": 2577,
      "爆": 2578,
      "爨": 2579,
      "爪": 2580,
      "爬": 2581,
      "爰": 2582,
      "爱": 2583,
      "爵": 2584,
      "父": 2585,
      "爷": 2586,
      "爸": 2587,
      "爽": 2588,
      "牁": 2589,
      "牂": 2590,
      "片": 2591,
      "版": 2592,
      "牌": 2593,
      "牍": 2594,
      "牒": 2595,
      "牙": 2596,
      "牛": 2597,
      "牟": 2598,
      "牡": 2599,
      "牢": 2600,
      "牧": 2601,
      "物": 2602,
      "牲": 2603,
      "牵": 2604,
      "特": 2605,
      "牺": 2606,
      "犀": 2607,
      "犁": 2608,
      "犂": 2609,
      "犄": 2610,
      "犇": 2611,
      "犍": 2612,
      "犬": 2613,
      "犯": 2614,
      "状": 2615,
      "犷": 2616,
      "犹": 2617,
      "狁": 2618,
      "狂": 2619,
      "狄": 2620,
      "狈": 2621,
      "狐": 2622,
      "狗": 2623,
      "狡": 2624,
      "狩": 2625,
      "独": 2626,
      "狭": 2627,
      "狮": 2628,
      "狱": 2629,
      "狷": 2630,
      "狸": 2631,
      "狼": 2632,
      "猃": 2633,
      "猎": 2634,
      "猕": 2635,
      "猖": 2636,
      "猗": 2637,
      "猛": 2638,
      "猜": 2639,
      "猝": 2640,
      "猩": 2641,
      "猪": 2642,
      "猫": 2643,
      "猬": 2644,
      "献": 2645,
      "猴": 2646,
      "猷": 2647,
      "猿": 2648,
      "獗": 2649,
      "獠": 2650,
      "獭": 2651,
      "玄": 2652,
      "率": 2653,
      "玉": 2654,
      "王": 2655,
      "玛": 2656,
      "玟": 2657,
      "玩": 2658,
      "玫": 2659,
      "玮": 2660,
      "环": 2661,
      "现": 2662,
      "玲": 2663,
      "玷": 2664,
      "玺": 2665,
      "玻": 2666,
      "珀": 2667,
      "珂": 2668,
      "珅": 2669,
      "珈": 2670,
      "珊": 2671,
      "珍": 2672,
      "珏": 2673,
      "珑": 2674,
      "珙": 2675,
      "珞": 2676,
      "珠": 2677,
      "珪": 2678,
      "班": 2679,
      "珲": 2680,
      "珷": 2681,
      "球": 2682,
      "琅": 2683,
      "理": 2684,
      "琉": 2685,
      "琊": 2686,
      "琏": 2687,
      "琐": 2688,
      "琚": 2689,
      "琛": 2690,
      "琜": 2691,
      "琥": 2692,
      "琦": 2693,
      "琪": 2694,
      "琬": 2695,
      "琳": 2696,
      "琴": 2697,
      "琵": 2698,
      "琶": 2699,
      "琼": 2700,
      "瑕": 2701,
      "瑗": 2702,
      "瑙": 2703,
      "瑚": 2704,
      "瑛": 2705,
      "瑜": 2706,
      "瑞": 2707,
      "瑟": 2708,
      "瑭": 2709,
      "瑰": 2710,
      "瑶": 2711,
      "瑷": 2712,
      "瑾": 2713,
      "璀": 2714,
      "璁": 2715,
      "璃": 2716,
      "璇": 2717,
      "璋": 2718,
      "璘": 2719,
      "璜": 2720,
      "璞": 2721,
      "璟": 2722,
      "璠": 2723,
      "璧": 2724,
      "璨": 2725,
      "瓒": 2726,
      "瓜": 2727,
      "瓠": 2728,
      "瓣": 2729,
      "瓦": 2730,
      "瓩": 2731,
      "瓮": 2732,
      "瓯": 2733,
      "瓶": 2734,
      "瓷": 2735,
      "甄": 2736,
      "甘": 2737,
      "甚": 2738,
      "甜": 2739,
      "生": 2740,
      "甥": 2741,
      "用": 2742,
      "甩": 2743,
      "甫": 2744,
      "甬": 2745,
      "田": 2746,
      "由": 2747,
      "甲": 2748,
      "申": 2749,
      "电": 2750,
      "男": 2751,
      "甸": 2752,
      "町": 2753,
      "画": 2754,
      "甽": 2755,
      "畅": 2756,
      "畈": 2757,
      "界": 2758,
      "畎": 2759,
      "畏": 2760,
      "畔": 2761,
      "留": 2762,
      "畜": 2763,
      "略": 2764,
      "番": 2765,
      "畲": 2766,
      "畴": 2767,
      "畸": 2768,
      "畿": 2769,
      "疆": 2770,
      "疍": 2771,
      "疏": 2772,
      "疑": 2773,
      "疗": 2774,
      "疟": 2775,
      "疠": 2776,
      "疡": 2777,
      "疫": 2778,
      "疮": 2779,
      "疯": 2780,
      "疲": 2781,
      "疵": 2782,
      "疸": 2783,
      "疹": 2784,
      "疼": 2785,
      "疾": 2786,
      "病": 2787,
      "症": 2788,
      "痕": 2789,
      "痘": 2790,
      "痛": 2791,
      "痢": 2792,
      "痪": 2793,
      "痫": 2794,
      "痲": 2795,
      "痺": 2796,
      "瘟": 2797,
      "瘤": 2798,
      "瘦": 2799,
      "瘪": 2800,
      "瘫": 2801,
      "瘳": 2802,
      "瘾": 2803,
      "瘿": 2804,
      "癌": 2805,
      "癖": 2806,
      "癞": 2807,
      "癫": 2808,
      "癸": 2809,
      "登": 2810,
      "白": 2811,
      "百": 2812,
      "皂": 2813,
      "的": 2814,
      "皆": 2815,
      "皇": 2816,
      "皈": 2817,
      "皋": 2818,
      "皎": 2819,
      "皓": 2820,
      "皖": 2821,
      "皝": 2822,
      "皮": 2823,
      "皱": 2824,
      "皿": 2825,
      "盅": 2826,
      "盆": 2827,
      "盈": 2828,
      "益": 2829,
      "盎": 2830,
      "盏": 2831,
      "盐": 2832,
      "监": 2833,
      "盒": 2834,
      "盔": 2835,
      "盖": 2836,
      "盗": 2837,
      "盘": 2838,
      "盛": 2839,
      "盟": 2840,
      "目": 2841,
      "盯": 2842,
      "盱": 2843,
      "盲": 2844,
      "直": 2845,
      "相": 2846,
      "盼": 2847,
      "盾": 2848,
      "省": 2849,
      "眉": 2850,
      "看": 2851,
      "眙": 2852,
      "真": 2853,
      "眠": 2854,
      "眷": 2855,
      "眼": 2856,
      "着": 2857,
      "睐": 2858,
      "睛": 2859,
      "睡": 2860,
      "睢": 2861,
      "督": 2862,
      "睦": 2863,
      "睬": 2864,
      "睹": 2865,
      "睿": 2866,
      "瞄": 2867,
      "瞎": 2868,
      "瞩": 2869,
      "瞬": 2870,
      "瞻": 2871,
      "瞽": 2872,
      "矗": 2873,
      "矛": 2874,
      "矜": 2875,
      "矢": 2876,
      "矣": 2877,
      "知": 2878,
      "矩": 2879,
      "矫": 2880,
      "矬": 2881,
      "短": 2882,
      "矮": 2883,
      "石": 2884,
      "矶": 2885,
      "矽": 2886,
      "矾": 2887,
      "矿": 2888,
      "砀": 2889,
      "码": 2890,
      "砂": 2891,
      "砌": 2892,
      "砍": 2893,
      "研": 2894,
      "砖": 2895,
      "砚": 2896,
      "砥": 2897,
      "砲": 2898,
      "破": 2899,
      "砷": 2900,
      "砸": 2901,
      "砺": 2902,
      "砻": 2903,
      "础": 2904,
      "硅": 2905,
      "硏": 2906,
      "硒": 2907,
      "硕": 2908,
      "硖": 2909,
      "硗": 2910,
      "硝": 2911,
      "硫": 2912,
      "硬": 2913,
      "确": 2914,
      "硼": 2915,
      "碁": 2916,
      "碉": 2917,
      "碌": 2918,
      "碍": 2919,
      "碎": 2920,
      "碑": 2921,
      "碗": 2922,
      "碚": 2923,
      "碛": 2924,
      "碟": 2925,
      "碧": 2926,
      "碰": 2927,
      "碱": 2928,
      "碳": 2929,
      "碴": 2930,
      "碾": 2931,
      "磁": 2932,
      "磊": 2933,
      "磋": 2934,
      "磐": 2935,
      "磨": 2936,
      "磴": 2937,
      "磷": 2938,
      "磺": 2939,
      "礁": 2940,
      "礅": 2941,
      "示": 2942,
      "礼": 2943,
      "社": 2944,
      "祀": 2945,
      "祁": 2946,
      "祆": 2947,
      "祇": 2948,
      "祈": 2949,
      "祉": 2950,
      "祏": 2951,
      "祐": 2952,
      "祖": 2953,
      "祗": 2954,
      "祚": 2955,
      "祜": 2956,
      "祝": 2957,
      "神": 2958,
      "祠": 2959,
      "祥": 2960,
      "票": 2961,
      "祭": 2962,
      "祯": 2963,
      "祷": 2964,
      "祸": 2965,
      "祺": 2966,
      "禀": 2967,
      "禁": 2968,
      "禄": 2969,
      "禅": 2970,
      "福": 2971,
      "禛": 2972,
      "禧": 2973,
      "禳": 2974,
      "禵": 2975,
      "禹": 2976,
      "禺": 2977,
      "离": 2978,
      "禽": 2979,
      "禾": 2980,
      "秀": 2981,
      "私": 2982,
      "秃": 2983,
      "秆": 2984,
      "秉": 2985,
      "秋": 2986,
      "种": 2987,
      "科": 2988,
      "秒": 2989,
      "秘": 2990,
      "租": 2991,
      "秦": 2992,
      "秧": 2993,
      "秩": 2994,
      "积": 2995,
      "称": 2996,
      "移": 2997,
      "稀": 2998,
      "程": 2999,
      "稍": 3000,
      "税": 3001,
      "稔": 3002,
      "稚": 3003,
      "稠": 3004,
      "稣": 3005,
      "稳": 3006,
      "稷": 3007,
      "稻": 3008,
      "稼": 3009,
      "稽": 3010,
      "稿": 3011,
      "穆": 3012,
      "穗": 3013,
      "穰": 3014,
      "穴": 3015,
      "究": 3016,
      "穷": 3017,
      "穹": 3018,
      "空": 3019,
      "穿": 3020,
      "突": 3021,
      "窃": 3022,
      "窄": 3023,
      "窑": 3024,
      "窖": 3025,
      "窗": 3026,
      "窜": 3027,
      "窝": 3028,
      "窟": 3029,
      "窥": 3030,
      "窦": 3031,
      "立": 3032,
      "竖": 3033,
      "站": 3034,
      "竞": 3035,
      "竟": 3036,
      "章": 3037,
      "竣": 3038,
      "童": 3039,
      "竭": 3040,
      "端": 3041,
      "竹": 3042,
      "竺": 3043,
      "竿": 3044,
      "笃": 3045,
      "笈": 3046,
      "笋": 3047,
      "笑": 3048,
      "笔": 3049,
      "笕": 3050,
      "笙": 3051,
      "笛": 3052,
      "符": 3053,
      "笨": 3054,
      "笩": 3055,
      "笫": 3056,
      "第": 3057,
      "笳": 3058,
      "笼": 3059,
      "等": 3060,
      "筋": 3061,
      "筌": 3062,
      "筏": 3063,
      "筑": 3064,
      "答": 3065,
      "策": 3066,
      "筛": 3067,
      "筝": 3068,
      "筠": 3069,
      "筱": 3070,
      "筵": 3071,
      "筷": 3072,
      "筹": 3073,
      "签": 3074,
      "简": 3075,
      "箍": 3076,
      "箕": 3077,
      "算": 3078,
      "箝": 3079,
      "管": 3080,
      "箫": 3081,
      "箭": 3082,
      "箱": 3083,
      "篆": 3084,
      "篇": 3085,
      "篑": 3086,
      "篡": 3087,
      "篮": 3088,
      "篱": 3089,
      "篷": 3090,
      "簇": 3091,
      "簕": 3092,
      "簧": 3093,
      "簷": 3094,
      "簸": 3095,
      "簿": 3096,
      "籀": 3097,
      "籍": 3098,
      "籐": 3099,
      "米": 3100,
      "籴": 3101,
      "类": 3102,
      "籽": 3103,
      "粉": 3104,
      "粒": 3105,
      "粗": 3106,
      "粘": 3107,
      "粟": 3108,
      "粢": 3109,
      "粤": 3110,
      "粥": 3111,
      "粧": 3112,
      "粪": 3113,
      "粮": 3114,
      "粱": 3115,
      "粲": 3116,
      "粹": 3117,
      "粽": 3118,
      "精": 3119,
      "糊": 3120,
      "糕": 3121,
      "糖": 3122,
      "糙": 3123,
      "糜": 3124,
      "糟": 3125,
      "系": 3126,
      "紊": 3127,
      "素": 3128,
      "索": 3129,
      "紧": 3130,
      "紫": 3131,
      "累": 3132,
      "絮": 3133,
      "綦": 3134,
      "縻": 3135,
      "繁": 3136,
      "繇": 3137,
      "纂": 3138,
      "纠": 3139,
      "红": 3140,
      "纣": 3141,
      "纤": 3142,
      "纥": 3143,
      "约": 3144,
      "级": 3145,
      "纪": 3146,
      "纫": 3147,
      "纬": 3148,
      "纭": 3149,
      "纯": 3150,
      "纱": 3151,
      "纲": 3152,
      "纳": 3153,
      "纵": 3154,
      "纶": 3155,
      "纷": 3156,
      "纸": 3157,
      "纹": 3158,
      "纺": 3159,
      "纽": 3160,
      "线": 3161,
      "绂": 3162,
      "练": 3163,
      "组": 3164,
      "绅": 3165,
      "细": 3166,
      "织": 3167,
      "终": 3168,
      "绊": 3169,
      "绌": 3170,
      "绍": 3171,
      "绎": 3172,
      "经": 3173,
      "绑": 3174,
      "绒": 3175,
      "结": 3176,
      "绔": 3177,
      "绕": 3178,
      "绘": 3179,
      "给": 3180,
      "绚": 3181,
      "绛": 3182,
      "络": 3183,
      "绝": 3184,
      "绞": 3185,
      "统": 3186,
      "绢": 3187,
      "绣": 3188,
      "绥": 3189,
      "继": 3190,
      "绩": 3191,
      "绪": 3192,
      "绫": 3193,
      "续": 3194,
      "绮": 3195,
      "绰": 3196,
      "绲": 3197,
      "绳": 3198,
      "维": 3199,
      "绵": 3200,
      "绶": 3201,
      "绸": 3202,
      "综": 3203,
      "绽": 3204,
      "绿": 3205,
      "缀": 3206,
      "缄": 3207,
      "缅": 3208,
      "缆": 3209,
      "缈": 3210,
      "缉": 3211,
      "缎": 3212,
      "缓": 3213,
      "缔": 3214,
      "缕": 3215,
      "编": 3216,
      "缗": 3217,
      "缘": 3218,
      "缙": 3219,
      "缚": 3220,
      "缝": 3221,
      "缠": 3222,
      "缢": 3223,
      "缤": 3224,
      "缥": 3225,
      "缩": 3226,
      "缪": 3227,
      "缫": 3228,
      "缭": 3229,
      "缮": 3230,
      "缯": 3231,
      "缴": 3232,
      "缵": 3233,
      "缸": 3234,
      "缺": 3235,
      "罂": 3236,
      "罐": 3237,
      "网": 3238,
      "罔": 3239,
      "罕": 3240,
      "罗": 3241,
      "罘": 3242,
      "罚": 3243,
      "罢": 3244,
      "罩": 3245,
      "罪": 3246,
      "置": 3247,
      "署": 3248,
      "罹": 3249,
      "羁": 3250,
      "羊": 3251,
      "羌": 3252,
      "美": 3253,
      "羚": 3254,
      "羞": 3255,
      "羟": 3256,
      "羡": 3257,
      "群": 3258,
      "羧": 3259,
      "羯": 3260,
      "羲": 3261,
      "羸": 3262,
      "羹": 3263,
      "羽": 3264,
      "羿": 3265,
      "翁": 3266,
      "翅": 3267,
      "翊": 3268,
      "翌": 3269,
      "翔": 3270,
      "翘": 3271,
      "翟": 3272,
      "翠": 3273,
      "翡": 3274,
      "翦": 3275,
      "翩": 3276,
      "翰": 3277,
      "翱": 3278,
      "翳": 3279,
      "翻": 3280,
      "翼": 3281,
      "耀": 3282,
      "老": 3283,
      "考": 3284,
      "者": 3285,
      "耆": 3286,
      "而": 3287,
      "耍": 3288,
      "耐": 3289,
      "耒": 3290,
      "耕": 3291,
      "耖": 3292,
      "耗": 3293,
      "耜": 3294,
      "耦": 3295,
      "耳": 3296,
      "耶": 3297,
      "耸": 3298,
      "耻": 3299,
      "耽": 3300,
      "耿": 3301,
      "聂": 3302,
      "聃": 3303,
      "聆": 3304,
      "聊": 3305,
      "职": 3306,
      "联": 3307,
      "聘": 3308,
      "聚": 3309,
      "聩": 3310,
      "聪": 3311,
      "聿": 3312,
      "肃": 3313,
      "肄": 3314,
      "肆": 3315,
      "肇": 3316,
      "肉": 3317,
      "肋": 3318,
      "肌": 3319,
      "肖": 3320,
      "肘": 3321,
      "肚": 3322,
      "肝": 3323,
      "肠": 3324,
      "股": 3325,
      "肢": 3326,
      "肤": 3327,
      "肥": 3328,
      "肩": 3329,
      "肪": 3330,
      "肯": 3331,
      "育": 3332,
      "肴": 3333,
      "肺": 3334,
      "肾": 3335,
      "肿": 3336,
      "胀": 3337,
      "胁": 3338,
      "胃": 3339,
      "胄": 3340,
      "胆": 3341,
      "背": 3342,
      "胎": 3343,
      "胖": 3344,
      "胚": 3345,
      "胜": 3346,
      "胞": 3347,
      "胡": 3348,
      "胤": 3349,
      "胥": 3350,
      "胧": 3351,
      "胪": 3352,
      "胰": 3353,
      "胶": 3354,
      "胸": 3355,
      "胺": 3356,
      "能": 3357,
      "脂": 3358,
      "脆": 3359,
      "脉": 3360,
      "脊": 3361,
      "脍": 3362,
      "脏": 3363,
      "脐": 3364,
      "脑": 3365,
      "脖": 3366,
      "脚": 3367,
      "脱": 3368,
      "脸": 3369,
      "脾": 3370,
      "腊": 3371,
      "腋": 3372,
      "腌": 3373,
      "腐": 3374,
      "腑": 3375,
      "腓": 3376,
      "腔": 3377,
      "腥": 3378,
      "腧": 3379,
      "腩": 3380,
      "腭": 3381,
      "腰": 3382,
      "腴": 3383,
      "腹": 3384,
      "腺": 3385,
      "腻": 3386,
      "腾": 3387,
      "腿": 3388,
      "膀": 3389,
      "膊": 3390,
      "膏": 3391,
      "膑": 3392,
      "膜": 3393,
      "膝": 3394,
      "膦": 3395,
      "膨": 3396,
      "膳": 3397,
      "膺": 3398,
      "膻": 3399,
      "臀": 3400,
      "臂": 3401,
      "臆": 3402,
      "臣": 3403,
      "臧": 3404,
      "自": 3405,
      "臭": 3406,
      "至": 3407,
      "致": 3408,
      "臻": 3409,
      "臼": 3410,
      "舅": 3411,
      "舆": 3412,
      "舌": 3413,
      "舍": 3414,
      "舎": 3415,
      "舒": 3416,
      "舜": 3417,
      "舞": 3418,
      "舟": 3419,
      "航": 3420,
      "般": 3421,
      "舰": 3422,
      "舱": 3423,
      "舵": 3424,
      "舶": 3425,
      "船": 3426,
      "艇": 3427,
      "艘": 3428,
      "艮": 3429,
      "良": 3430,
      "艰": 3431,
      "色": 3432,
      "艳": 3433,
      "艺": 3434,
      "艾": 3435,
      "节": 3436,
      "芋": 3437,
      "芍": 3438,
      "芒": 3439,
      "芙": 3440,
      "芜": 3441,
      "芝": 3442,
      "芥": 3443,
      "芦": 3444,
      "芪": 3445,
      "芬": 3446,
      "芭": 3447,
      "芮": 3448,
      "芯": 3449,
      "花": 3450,
      "芳": 3451,
      "芸": 3452,
      "芹": 3453,
      "芽": 3454,
      "苇": 3455,
      "苌": 3456,
      "苍": 3457,
      "苎": 3458,
      "苏": 3459,
      "苑": 3460,
      "苓": 3461,
      "苔": 3462,
      "苕": 3463,
      "苗": 3464,
      "苛": 3465,
      "苜": 3466,
      "苞": 3467,
      "若": 3468,
      "苦": 3469,
      "苯": 3470,
      "苰": 3471,
      "英": 3472,
      "苴": 3473,
      "苷": 3474,
      "苹": 3475,
      "苻": 3476,
      "茁": 3477,
      "茂": 3478,
      "范": 3479,
      "茄": 3480,
      "茅": 3481,
      "茉": 3482,
      "茌": 3483,
      "茎": 3484,
      "茜": 3485,
      "茧": 3486,
      "茨": 3487,
      "茫": 3488,
      "茬": 3489,
      "茱": 3490,
      "茵": 3491,
      "茶": 3492,
      "茸": 3493,
      "茹": 3494,
      "荀": 3495,
      "荃": 3496,
      "荆": 3497,
      "草": 3498,
      "荐": 3499,
      "荒": 3500,
      "荔": 3501,
      "荞": 3502,
      "荟": 3503,
      "荡": 3504,
      "荣": 3505,
      "荤": 3506,
      "荥": 3507,
      "荧": 3508,
      "荫": 3509,
      "药": 3510,
      "荷": 3511,
      "荼": 3512,
      "莆": 3513,
      "莉": 3514,
      "莎": 3515,
      "莒": 3516,
      "莓": 3517,
      "莘": 3518,
      "莜": 3519,
      "莞": 3520,
      "莫": 3521,
      "莱": 3522,
      "莲": 3523,
      "获": 3524,
      "莹": 3525,
      "莺": 3526,
      "莽": 3527,
      "菁": 3528,
      "菇": 3529,
      "菊": 3530,
      "菌": 3531,
      "菏": 3532,
      "菘": 3533,
      "菜": 3534,
      "菟": 3535,
      "菠": 3536,
      "菩": 3537,
      "菱": 3538,
      "菲": 3539,
      "萃": 3540,
      "萄": 3541,
      "萌": 3542,
      "萍": 3543,
      "萎": 3544,
      "萜": 3545,
      "萝": 3546,
      "萤": 3547,
      "营": 3548,
      "萧": 3549,
      "萨": 3550,
      "落": 3551,
      "葆": 3552,
      "著": 3553,
      "葛": 3554,
      "葡": 3555,
      "董": 3556,
      "葩": 3557,
      "葫": 3558,
      "葬": 3559,
      "葱": 3560,
      "葵": 3561,
      "蒂": 3562,
      "蒋": 3563,
      "蒌": 3564,
      "蒗": 3565,
      "蒙": 3566,
      "蒜": 3567,
      "蒯": 3568,
      "蒲": 3569,
      "蒸": 3570,
      "蒿": 3571,
      "蓄": 3572,
      "蓉": 3573,
      "蓝": 3574,
      "蓟": 3575,
      "蓬": 3576,
      "蓿": 3577,
      "蔑": 3578,
      "蔓": 3579,
      "蔗": 3580,
      "蔚": 3581,
      "蔡": 3582,
      "蔬": 3583,
      "蔷": 3584,
      "蔺": 3585,
      "蔽": 3586,
      "蕃": 3587,
      "蕉": 3588,
      "蕙": 3589,
      "蕨": 3590,
      "蕴": 3591,
      "蕻": 3592,
      "蕾": 3593,
      "薄": 3594,
      "薅": 3595,
      "薇": 3596,
      "薙": 3597,
      "薛": 3598,
      "薪": 3599,
      "薯": 3600,
      "薰": 3601,
      "藉": 3602,
      "藏": 3603,
      "藐": 3604,
      "藓": 3605,
      "藜": 3606,
      "藤": 3607,
      "藩": 3608,
      "藻": 3609,
      "藿": 3610,
      "蘅": 3611,
      "蘑": 3612,
      "蘸": 3613,
      "虎": 3614,
      "虏": 3615,
      "虐": 3616,
      "虑": 3617,
      "虔": 3618,
      "虚": 3619,
      "虞": 3620,
      "虢": 3621,
      "虫": 3622,
      "虹": 3623,
      "虽": 3624,
      "虾": 3625,
      "蚀": 3626,
      "蚁": 3627,
      "蚂": 3628,
      "蚊": 3629,
      "蚌": 3630,
      "蚕": 3631,
      "蚝": 3632,
      "蚩": 3633,
      "蚪": 3634,
      "蚵": 3635,
      "蛇": 3636,
      "蛊": 3637,
      "蛋": 3638,
      "蛎": 3639,
      "蛏": 3640,
      "蛙": 3641,
      "蛛": 3642,
      "蛟": 3643,
      "蛤": 3644,
      "蛮": 3645,
      "蛰": 3646,
      "蛳": 3647,
      "蛴": 3648,
      "蜀": 3649,
      "蜂": 3650,
      "蜃": 3651,
      "蜇": 3652,
      "蜑": 3653,
      "蜒": 3654,
      "蜓": 3655,
      "蜕": 3656,
      "蜚": 3657,
      "蜜": 3658,
      "蜡": 3659,
      "蜥": 3660,
      "蜿": 3661,
      "蝇": 3662,
      "蝈": 3663,
      "蝉": 3664,
      "蝌": 3665,
      "蝗": 3666,
      "蝙": 3667,
      "蝠": 3668,
      "蝤": 3669,
      "蝮": 3670,
      "蝴": 3671,
      "蝶": 3672,
      "螂": 3673,
      "螃": 3674,
      "融": 3675,
      "螨": 3676,
      "螭": 3677,
      "螳": 3678,
      "螺": 3679,
      "蟀": 3680,
      "蟆": 3681,
      "蟊": 3682,
      "蟋": 3683,
      "蟒": 3684,
      "蟹": 3685,
      "蟾": 3686,
      "蠓": 3687,
      "蠕": 3688,
      "蠡": 3689,
      "蠢": 3690,
      "蠹": 3691,
      "血": 3692,
      "衅": 3693,
      "行": 3694,
      "衍": 3695,
      "衎": 3696,
      "衔": 3697,
      "街": 3698,
      "衙": 3699,
      "衞": 3700,
      "衡": 3701,
      "衢": 3702,
      "衣": 3703,
      "补": 3704,
      "表": 3705,
      "衫": 3706,
      "衬": 3707,
      "衮": 3708,
      "衰": 3709,
      "衷": 3710,
      "衹": 3711,
      "衽": 3712,
      "袁": 3713,
      "袂": 3714,
      "袄": 3715,
      "袈": 3716,
      "袋": 3717,
      "袍": 3718,
      "袖": 3719,
      "被": 3720,
      "袭": 3721,
      "袱": 3722,
      "裁": 3723,
      "裂": 3724,
      "装": 3725,
      "裔": 3726,
      "裕": 3727,
      "裘": 3728,
      "裙": 3729,
      "裟": 3730,
      "裤": 3731,
      "裨": 3732,
      "裳": 3733,
      "裴": 3734,
      "裸": 3735,
      "裹": 3736,
      "裾": 3737,
      "褂": 3738,
      "褐": 3739,
      "褒": 3740,
      "褔": 3741,
      "褕": 3742,
      "褚": 3743,
      "褪": 3744,
      "褶": 3745,
      "襄": 3746,
      "襜": 3747,
      "襟": 3748,
      "襦": 3749,
      "西": 3750,
      "要": 3751,
      "覃": 3752,
      "覆": 3753,
      "见": 3754,
      "观": 3755,
      "规": 3756,
      "觅": 3757,
      "视": 3758,
      "览": 3759,
      "觉": 3760,
      "觐": 3761,
      "觑": 3762,
      "角": 3763,
      "觝": 3764,
      "觞": 3765,
      "解": 3766,
      "触": 3767,
      "言": 3768,
      "訇": 3769,
      "詹": 3770,
      "誉": 3771,
      "誓": 3772,
      "警": 3773,
      "譬": 3774,
      "计": 3775,
      "订": 3776,
      "认": 3777,
      "讥": 3778,
      "讧": 3779,
      "讨": 3780,
      "让": 3781,
      "训": 3782,
      "议": 3783,
      "讯": 3784,
      "记": 3785,
      "讲": 3786,
      "讳": 3787,
      "讶": 3788,
      "讷": 3789,
      "许": 3790,
      "讹": 3791,
      "论": 3792,
      "讼": 3793,
      "讽": 3794,
      "设": 3795,
      "访": 3796,
      "诀": 3797,
      "证": 3798,
      "诃": 3799,
      "评": 3800,
      "识": 3801,
      "诈": 3802,
      "诉": 3803,
      "诊": 3804,
      "诋": 3805,
      "词": 3806,
      "诏": 3807,
      "译": 3808,
      "诒": 3809,
      "试": 3810,
      "诗": 3811,
      "诘": 3812,
      "诚": 3813,
      "诛": 3814,
      "话": 3815,
      "诞": 3816,
      "诟": 3817,
      "诠": 3818,
      "诡": 3819,
      "询": 3820,
      "诣": 3821,
      "该": 3822,
      "详": 3823,
      "诩": 3824,
      "诫": 3825,
      "诬": 3826,
      "语": 3827,
      "误": 3828,
      "诱": 3829,
      "诲": 3830,
      "说": 3831,
      "诵": 3832,
      "请": 3833,
      "诸": 3834,
      "诺": 3835,
      "读": 3836,
      "课": 3837,
      "谁": 3838,
      "调": 3839,
      "谄": 3840,
      "谅": 3841,
      "谈": 3842,
      "谊": 3843,
      "谋": 3844,
      "谍": 3845,
      "谎": 3846,
      "谏": 3847,
      "谐": 3848,
      "谒": 3849,
      "谓": 3850,
      "谕": 3851,
      "谗": 3852,
      "谚": 3853,
      "谛": 3854,
      "谜": 3855,
      "谟": 3856,
      "谢": 3857,
      "谣": 3858,
      "谤": 3859,
      "谥": 3860,
      "谦": 3861,
      "谧": 3862,
      "谨": 3863,
      "谪": 3864,
      "谬": 3865,
      "谭": 3866,
      "谯": 3867,
      "谱": 3868,
      "谲": 3869,
      "谴": 3870,
      "谷": 3871,
      "谿": 3872,
      "豁": 3873,
      "豆": 3874,
      "豌": 3875,
      "豚": 3876,
      "象": 3877,
      "豪": 3878,
      "豫": 3879,
      "豷": 3880,
      "豹": 3881,
      "豺": 3882,
      "貂": 3883,
      "貉": 3884,
      "貊": 3885,
      "貌": 3886,
      "贝": 3887,
      "贞": 3888,
      "负": 3889,
      "贡": 3890,
      "财": 3891,
      "责": 3892,
      "贤": 3893,
      "败": 3894,
      "账": 3895,
      "货": 3896,
      "质": 3897,
      "贩": 3898,
      "贪": 3899,
      "贫": 3900,
      "贬": 3901,
      "购": 3902,
      "贮": 3903,
      "贯": 3904,
      "贲": 3905,
      "贴": 3906,
      "贵": 3907,
      "贷": 3908,
      "贸": 3909,
      "费": 3910,
      "贺": 3911,
      "贻": 3912,
      "贼": 3913,
      "贽": 3914,
      "贾": 3915,
      "贿": 3916,
      "赁": 3917,
      "资": 3918,
      "赈": 3919,
      "赉": 3920,
      "赋": 3921,
      "赌": 3922,
      "赎": 3923,
      "赏": 3924,
      "赐": 3925,
      "赔": 3926,
      "赕": 3927,
      "赖": 3928,
      "赘": 3929,
      "赚": 3930,
      "赛": 3931,
      "赞": 3932,
      "赠": 3933,
      "赡": 3934,
      "赢": 3935,
      "赣": 3936,
      "赤": 3937,
      "赦": 3938,
      "赧": 3939,
      "赫": 3940,
      "走": 3941,
      "赴": 3942,
      "赵": 3943,
      "赶": 3944,
      "起": 3945,
      "趁": 3946,
      "超": 3947,
      "越": 3948,
      "趋": 3949,
      "趣": 3950,
      "足": 3951,
      "趾": 3952,
      "跃": 3953,
      "跆": 3954,
      "跋": 3955,
      "跌": 3956,
      "跑": 3957,
      "距": 3958,
      "跟": 3959,
      "跤": 3960,
      "跨": 3961,
      "路": 3962,
      "跳": 3963,
      "践": 3964,
      "跷": 3965,
      "跸": 3966,
      "跻": 3967,
      "踏": 3968,
      "踘": 3969,
      "踞": 3970,
      "踢": 3971,
      "踩": 3972,
      "踪": 3973,
      "踵": 3974,
      "蹂": 3975,
      "蹄": 3976,
      "蹈": 3977,
      "蹦": 3978,
      "蹴": 3979,
      "躁": 3980,
      "躏": 3981,
      "身": 3982,
      "躬": 3983,
      "躯": 3984,
      "躲": 3985,
      "轝": 3986,
      "车": 3987,
      "轧": 3988,
      "轨": 3989,
      "轩": 3990,
      "轫": 3991,
      "转": 3992,
      "轭": 3993,
      "轮": 3994,
      "软": 3995,
      "轰": 3996,
      "轲": 3997,
      "轴": 3998,
      "轵": 3999,
      "轶": 4000,
      "轻": 4001,
      "轼": 4002,
      "载": 4003,
      "轿": 4004,
      "较": 4005,
      "辄": 4006,
      "辅": 4007,
      "辆": 4008,
      "辇": 4009,
      "辈": 4010,
      "辉": 4011,
      "辍": 4012,
      "辐": 4013,
      "辑": 4014,
      "输": 4015,
      "辕": 4016,
      "辖": 4017,
      "辗": 4018,
      "辛": 4019,
      "辜": 4020,
      "辞": 4021,
      "辟": 4022,
      "辣": 4023,
      "辥": 4024,
      "辨": 4025,
      "辩": 4026,
      "辫": 4027,
      "辰": 4028,
      "辱": 4029,
      "边": 4030,
      "辽": 4031,
      "达": 4032,
      "迁": 4033,
      "迂": 4034,
      "迄": 4035,
      "迅": 4036,
      "过": 4037,
      "迈": 4038,
      "迍": 4039,
      "迎": 4040,
      "运": 4041,
      "近": 4042,
      "返": 4043,
      "还": 4044,
      "这": 4045,
      "进": 4046,
      "远": 4047,
      "违": 4048,
      "连": 4049,
      "迟": 4050,
      "迤": 4051,
      "迥": 4052,
      "迦": 4053,
      "迩": 4054,
      "迪": 4055,
      "迫": 4056,
      "迭": 4057,
      "述": 4058,
      "迳": 4059,
      "迷": 4060,
      "迸": 4061,
      "迹": 4062,
      "迺": 4063,
      "追": 4064,
      "退": 4065,
      "送": 4066,
      "适": 4067,
      "逃": 4068,
      "逆": 4069,
      "选": 4070,
      "逊": 4071,
      "透": 4072,
      "逐": 4073,
      "递": 4074,
      "途": 4075,
      "逖": 4076,
      "逗": 4077,
      "通": 4078,
      "逝": 4079,
      "速": 4080,
      "造": 4081,
      "逢": 4082,
      "逮": 4083,
      "逵": 4084,
      "逸": 4085,
      "逻": 4086,
      "逼": 4087,
      "逾": 4088,
      "遂": 4089,
      "遇": 4090,
      "遍": 4091,
      "遏": 4092,
      "遐": 4093,
      "道": 4094,
      "遗": 4095,
      "遣": 4096,
      "遥": 4097,
      "遭": 4098,
      "遮": 4099,
      "遴": 4100,
      "遵": 4101,
      "遶": 4102,
      "遽": 4103,
      "避": 4104,
      "邀": 4105,
      "邅": 4106,
      "邈": 4107,
      "邑": 4108,
      "邓": 4109,
      "邕": 4110,
      "邗": 4111,
      "邙": 4112,
      "邛": 4113,
      "邠": 4114,
      "邡": 4115,
      "邢": 4116,
      "那": 4117,
      "邦": 4118,
      "邪": 4119,
      "邬": 4120,
      "邮": 4121,
      "邯": 4122,
      "邰": 4123,
      "邱": 4124,
      "邳": 4125,
      "邵": 4126,
      "邸": 4127,
      "邹": 4128,
      "邺": 4129,
      "邻": 4130,
      "邽": 4131,
      "郁": 4132,
      "郅": 4133,
      "郈": 4134,
      "郊": 4135,
      "郎": 4136,
      "郑": 4137,
      "郓": 4138,
      "郕": 4139,
      "郗": 4140,
      "郝": 4141,
      "郡": 4142,
      "郢": 4143,
      "郤": 4144,
      "郦": 4145,
      "郧": 4146,
      "部": 4147,
      "郫": 4148,
      "郭": 4149,
      "郯": 4150,
      "郸": 4151,
      "都": 4152,
      "郾": 4153,
      "鄂": 4154,
      "鄗": 4155,
      "鄙": 4156,
      "鄜": 4157,
      "鄞": 4158,
      "鄨": 4159,
      "鄯": 4160,
      "鄱": 4161,
      "酂": 4162,
      "酉": 4163,
      "酊": 4164,
      "酋": 4165,
      "酌": 4166,
      "配": 4167,
      "酎": 4168,
      "酒": 4169,
      "酗": 4170,
      "酚": 4171,
      "酝": 4172,
      "酥": 4173,
      "酪": 4174,
      "酬": 4175,
      "酮": 4176,
      "酰": 4177,
      "酱": 4178,
      "酵": 4179,
      "酶": 4180,
      "酷": 4181,
      "酸": 4182,
      "酿": 4183,
      "醇": 4184,
      "醉": 4185,
      "醋": 4186,
      "醒": 4187,
      "醛": 4188,
      "醮": 4189,
      "醴": 4190,
      "采": 4191,
      "释": 4192,
      "里": 4193,
      "重": 4194,
      "野": 4195,
      "量": 4196,
      "金": 4197,
      "釜": 4198,
      "鉏": 4199,
      "鉴": 4200,
      "銎": 4201,
      "銮": 4202,
      "鎏": 4203,
      "鏖": 4204,
      "鑫": 4205,
      "针": 4206,
      "钉": 4207,
      "钊": 4208,
      "钍": 4209,
      "钒": 4210,
      "钓": 4211,
      "钙": 4212,
      "钛": 4213,
      "钞": 4214,
      "钟": 4215,
      "钠": 4216,
      "钢": 4217,
      "钥": 4218,
      "钦": 4219,
      "钧": 4220,
      "钨": 4221,
      "钩": 4222,
      "钮": 4223,
      "钰": 4224,
      "钱": 4225,
      "钵": 4226,
      "钹": 4227,
      "钻": 4228,
      "钼": 4229,
      "钽": 4230,
      "钾": 4231,
      "铀": 4232,
      "铁": 4233,
      "铃": 4234,
      "铅": 4235,
      "铊": 4236,
      "铍": 4237,
      "铎": 4238,
      "铛": 4239,
      "铜": 4240,
      "铝": 4241,
      "铟": 4242,
      "铠": 4243,
      "铤": 4244,
      "铧": 4245,
      "铨": 4246,
      "铬": 4247,
      "铭": 4248,
      "铮": 4249,
      "铲": 4250,
      "铵": 4251,
      "银": 4252,
      "铸": 4253,
      "铺": 4254,
      "链": 4255,
      "销": 4256,
      "锁": 4257,
      "锂": 4258,
      "锄": 4259,
      "锅": 4260,
      "锈": 4261,
      "锋": 4262,
      "锌": 4263,
      "锐": 4264,
      "锑": 4265,
      "错": 4266,
      "锚": 4267,
      "锟": 4268,
      "锡": 4269,
      "锢": 4270,
      "锣": 4271,
      "锤": 4272,
      "锦": 4273,
      "键": 4274,
      "锯": 4275,
      "锰": 4276,
      "锷": 4277,
      "锻": 4278,
      "镀": 4279,
      "镁": 4280,
      "镂": 4281,
      "镇": 4282,
      "镉": 4283,
      "镌": 4284,
      "镍": 4285,
      "镐": 4286,
      "镑": 4287,
      "镕": 4288,
      "镛": 4289,
      "镜": 4290,
      "镞": 4291,
      "镠": 4292,
      "镰": 4293,
      "镲": 4294,
      "镳": 4295,
      "镶": 4296,
      "长": 4297,
      "门": 4298,
      "闪": 4299,
      "闫": 4300,
      "闭": 4301,
      "问": 4302,
      "闯": 4303,
      "闰": 4304,
      "闲": 4305,
      "间": 4306,
      "闵": 4307,
      "闷": 4308,
      "闸": 4309,
      "闹": 4310,
      "闺": 4311,
      "闻": 4312,
      "闽": 4313,
      "闾": 4314,
      "阀": 4315,
      "阁": 4316,
      "阂": 4317,
      "阅": 4318,
      "阆": 4319,
      "阈": 4320,
      "阉": 4321,
      "阎": 4322,
      "阐": 4323,
      "阔": 4324,
      "阖": 4325,
      "阗": 4326,
      "阙": 4327,
      "阜": 4328,
      "队": 4329,
      "阡": 4330,
      "阪": 4331,
      "阮": 4332,
      "阯": 4333,
      "阱": 4334,
      "防": 4335,
      "阳": 4336,
      "阴": 4337,
      "阵": 4338,
      "阶": 4339,
      "阻": 4340,
      "阿": 4341,
      "陀": 4342,
      "附": 4343,
      "际": 4344,
      "陆": 4345,
      "陇": 4346,
      "陈": 4347,
      "陉": 4348,
      "陋": 4349,
      "陌": 4350,
      "降": 4351,
      "限": 4352,
      "陕": 4353,
      "陛": 4354,
      "陟": 4355,
      "陡": 4356,
      "院": 4357,
      "除": 4358,
      "陨": 4359,
      "险": 4360,
      "陪": 4361,
      "陬": 4362,
      "陲": 4363,
      "陵": 4364,
      "陶": 4365,
      "陷": 4366,
      "隅": 4367,
      "隆": 4368,
      "隈": 4369,
      "隋": 4370,
      "隍": 4371,
      "随": 4372,
      "隐": 4373,
      "隔": 4374,
      "隗": 4375,
      "隘": 4376,
      "隙": 4377,
      "障": 4378,
      "隧": 4379,
      "隳": 4380,
      "隶": 4381,
      "隷": 4382,
      "隹": 4383,
      "隽": 4384,
      "难": 4385,
      "雀": 4386,
      "雁": 4387,
      "雄": 4388,
      "雅": 4389,
      "集": 4390,
      "雇": 4391,
      "雉": 4392,
      "雌": 4393,
      "雍": 4394,
      "雏": 4395,
      "雒": 4396,
      "雕": 4397,
      "雨": 4398,
      "雩": 4399,
      "雪": 4400,
      "雯": 4401,
      "零": 4402,
      "雷": 4403,
      "雹": 4404,
      "雾": 4405,
      "需": 4406,
      "霄": 4407,
      "霆": 4408,
      "震": 4409,
      "霉": 4410,
      "霍": 4411,
      "霖": 4412,
      "霜": 4413,
      "霞": 4414,
      "霨": 4415,
      "霭": 4416,
      "露": 4417,
      "霸": 4418,
      "霾": 4419,
      "青": 4420,
      "靓": 4421,
      "靖": 4422,
      "静": 4423,
      "靛": 4424,
      "非": 4425,
      "靠": 4426,
      "靡": 4427,
      "面": 4428,
      "革": 4429,
      "靳": 4430,
      "靺": 4431,
      "靼": 4432,
      "鞅": 4433,
      "鞋": 4434,
      "鞍": 4435,
      "鞑": 4436,
      "鞘": 4437,
      "鞠": 4438,
      "鞣": 4439,
      "鞨": 4440,
      "鞬": 4441,
      "鞭": 4442,
      "韦": 4443,
      "韧": 4444,
      "韩": 4445,
      "韬": 4446,
      "韭": 4447,
      "音": 4448,
      "韵": 4449,
      "韶": 4450,
      "页": 4451,
      "顶": 4452,
      "顷": 4453,
      "项": 4454,
      "顺": 4455,
      "须": 4456,
      "顼": 4457,
      "顽": 4458,
      "顾": 4459,
      "顿": 4460,
      "颁": 4461,
      "颂": 4462,
      "预": 4463,
      "颅": 4464,
      "领": 4465,
      "颇": 4466,
      "颈": 4467,
      "颉": 4468,
      "颍": 4469,
      "颐": 4470,
      "频": 4471,
      "颓": 4472,
      "颖": 4473,
      "颗": 4474,
      "题": 4475,
      "颚": 4476,
      "颛": 4477,
      "颜": 4478,
      "额": 4479,
      "颠": 4480,
      "风": 4481,
      "飘": 4482,
      "飙": 4483,
      "飚": 4484,
      "飞": 4485,
      "食": 4486,
      "飡": 4487,
      "飨": 4488,
      "餐": 4489,
      "饥": 4490,
      "饨": 4491,
      "饪": 4492,
      "饬": 4493,
      "饭": 4494,
      "饮": 4495,
      "饯": 4496,
      "饰": 4497,
      "饱": 4498,
      "饲": 4499,
      "饶": 4500,
      "饷": 4501,
      "饸": 4502,
      "饹": 4503,
      "饺": 4504,
      "饼": 4505,
      "饿": 4506,
      "馀": 4507,
      "馃": 4508,
      "馄": 4509,
      "馅": 4510,
      "馆": 4511,
      "馈": 4512,
      "馏": 4513,
      "馑": 4514,
      "馒": 4515,
      "首": 4516,
      "香": 4517,
      "馥": 4518,
      "馨": 4519,
      "駄": 4520,
      "马": 4521,
      "驭": 4522,
      "驮": 4523,
      "驯": 4524,
      "驰": 4525,
      "驱": 4526,
      "驳": 4527,
      "驴": 4528,
      "驶": 4529,
      "驸": 4530,
      "驹": 4531,
      "驻": 4532,
      "驼": 4533,
      "驾": 4534,
      "驿": 4535,
      "骂": 4536,
      "骄": 4537,
      "骅": 4538,
      "骆": 4539,
      "骇": 4540,
      "验": 4541,
      "骏": 4542,
      "骑": 4543,
      "骕": 4544,
      "骗": 4545,
      "骚": 4546,
      "骜": 4547,
      "骝": 4548,
      "骞": 4549,
      "骠": 4550,
      "骡": 4551,
      "骤": 4552,
      "骥": 4553,
      "骧": 4554,
      "骨": 4555,
      "骰": 4556,
      "骸": 4557,
      "骼": 4558,
      "髓": 4559,
      "高": 4560,
      "髦": 4561,
      "髳": 4562,
      "髻": 4563,
      "鬃": 4564,
      "鬲": 4565,
      "鬼": 4566,
      "魁": 4567,
      "魂": 4568,
      "魅": 4569,
      "魇": 4570,
      "魋": 4571,
      "魏": 4572,
      "魔": 4573,
      "鱼": 4574,
      "鲀": 4575,
      "鲁": 4576,
      "鲅": 4577,
      "鲆": 4578,
      "鲋": 4579,
      "鲌": 4580,
      "鲍": 4581,
      "鲐": 4582,
      "鲜": 4583,
      "鲞": 4584,
      "鲟": 4585,
      "鲢": 4586,
      "鲤": 4587,
      "鲧": 4588,
      "鲨": 4589,
      "鲳": 4590,
      "鲵": 4591,
      "鲶": 4592,
      "鲸": 4593,
      "鲻": 4594,
      "鲽": 4595,
      "鳄": 4596,
      "鳅": 4597,
      "鳇": 4598,
      "鳌": 4599,
      "鳎": 4600,
      "鳖": 4601,
      "鳗": 4602,
      "鳝": 4603,
      "鳞": 4604,
      "鳢": 4605,
      "鳯": 4606,
      "鸟": 4607,
      "鸠": 4608,
      "鸡": 4609,
      "鸢": 4610,
      "鸣": 4611,
      "鸥": 4612,
      "鸦": 4613,
      "鸨": 4614,
      "鸭": 4615,
      "鸯": 4616,
      "鸳": 4617,
      "鸽": 4618,
      "鸿": 4619,
      "鹃": 4620,
      "鹅": 4621,
      "鹉": 4622,
      "鹊": 4623,
      "鹏": 4624,
      "鹖": 4625,
      "鹗": 4626,
      "鹘": 4627,
      "鹤": 4628,
      "鹦": 4629,
      "鹫": 4630,
      "鹭": 4631,
      "鹮": 4632,
      "鹰": 4633,
      "鹳": 4634,
      "鹿": 4635,
      "麂": 4636,
      "麋": 4637,
      "麐": 4638,
      "麒": 4639,
      "麓": 4640,
      "麝": 4641,
      "麟": 4642,
      "麦": 4643,
      "麸": 4644,
      "麻": 4645,
      "麾": 4646,
      "黄": 4647,
      "黍": 4648,
      "黎": 4649,
      "黏": 4650,
      "黑": 4651,
      "黔": 4652,
      "默": 4653,
      "黛": 4654,
      "黜": 4655,
      "黟": 4656,
      "黩": 4657,
      "鼋": 4658,
      "鼎": 4659,
      "鼐": 4660,
      "鼓": 4661,
      "鼠": 4662,
      "鼻": 4663,
      "齐": 4664,
      "齿": 4665,
      "龄": 4666,
      "龙": 4667,
      "龚": 4668,
      "龟": 4669,
      "그": 4670,
      "나": 4671,
      "대": 4672,
      "면": 4673,
      "하": 4674,
      "𠀠": 4675,
      "𠊎": 4676,
      "𠟭": 4677,
      "𠼤": 4678,
      "𢀛": 4679,
      "𢆶": 4680,
      "𦈡": 4681,
      "𪟝": 4682,
      "𪾢": 4683,
      "𫉄": 4684,
      "𫍽": 4685,
      "𫏋": 4686,
      "𫓧": 4687,
      "𫖯": 4688,
      "𬀪": 4689,
      "𬩽": 4690,
      "▁,": 4691,
      "▁。": 4692,
      "▁、": 4693,
      "▁1": 4694,
      "▁0": 4695,
      "▁\n": 4696,
      "▁2": 4697,
      "▁年": 4698,
      "▁9": 4699,
      "▁.": 4700,
      "▁5": 4701,
      "▁3": 4702,
      "▁(": 4703,
      "▁)": 4704,
      "▁8": 4705,
      "▁4": 4706,
      "中国": 4707,
      "▁6": 4708,
      "▁7": 4709,
      "▁月": 4710,
      "▁“": 4711,
      "▁”": 4712,
      "▁;": 4713,
      "▁《": 4714,
      "▁》": 4715,
      "▁在": 4716,
      "人民": 4717,
      "▁:": 4718,
      "▁%": 4719,
      "经济": 4720,
      "▁日": 4721,
      "▁「": 4722,
      "▁」": 4723,
      "▁其": 4724,
      "中华": 4725,
      "▁万": 4726,
      "人口": 4727,
      "地区": 4728,
      "▁而": 4729,
      "▁并": 4730,
      "▁-": 4731,
      "国家": 4732,
      "政府": 4733,
      "社会": 4734,
      "发展": 4735,
      "研究": 4736,
      "文化": 4737,
      "▁这": 4738,
      "▁中国": 4739,
      "▁以": 4740,
      "一个": 4741,
      "▁但": 4742,
      "主要": 4743,
      "▁个": 4744,
      "美国": 4745,
      "共和": 4746,
      "世界": 4747,
      "历史": 4748,
      "共和国": 4749,
      "开始": 4750,
      "▁是": 4751,
      "▁的": 4752,
      "成为": 4753,
      "人民共和国": 4754,
      "全国": 4755,
      "上海": 4756,
      "主义": 4757,
      "系统": 4758,
      "中华人民共和国": 4759,
      "▁·": 4760,
      "包括": 4761,
      "时期": 4762,
      "▁其中": 4763,
      "北京": 4764,
      "蒙古": 4765,
      "▁中": 4766,
      "使用": 4767,
      "政治": 4768,
      "▁大": 4769,
      "共产": 4770,
      "科学": 4771,
      "可以": 4772,
      "in": 4773,
      "▁人": 4774,
      "部分": 4775,
      "天津": 4776,
      "认为": 4777,
      "城市": 4778,
      "民族": 4779,
      "▁一": 4780,
      "第一": 4781,
      "教育": 4782,
      "运动": 4783,
      "共产党": 4784,
      "重庆": 4785,
      "理论": 4786,
      "世纪": 4787,
      "▁因": 4788,
      "影响": 4789,
      "▁同": 4790,
      "深圳": 4791,
      "建立": 4792,
      "中央": 4793,
      "进行": 4794,
      "▁有": 4795,
      "▁由": 4796,
      "重要": 4797,
      "理学": 4798,
      "植物": 4799,
      "▁不": 4800,
      "国际": 4801,
      "问题": 4802,
      "▁万人": 4803,
      "▁也": 4804,
      "▁如": 4805,
      "民国": 4806,
      "▁为": 4807,
      "铁路": 4808,
      "大学": 4809,
      "▁公": 4810,
      "▁亿": 4811,
      "之一": 4812,
      "代表": 4813,
      "▁西": 4814,
      "宗教": 4815,
      "生产": 4816,
      "▁南": 4817,
      "▁东": 4818,
      "中心": 4819,
      "计算": 4820,
      "其他": 4821,
      "例如": 4822,
      "行政": 4823,
      "增长": 4824,
      "▁和": 4825,
      "▁自": 4826,
      "▁孙": 4827,
      "▁此": 4828,
      "台湾": 4829,
      "成立": 4830,
      "作为": 4831,
      "技术": 4832,
      "革命": 4833,
      "许多": 4834,
      "▁世纪": 4835,
      "▁例如": 4836,
      "农业": 4837,
      "尼亚": 4838,
      "▁他": 4839,
      "组织": 4840,
      "语言": 4841,
      "称为": 4842,
      "以及": 4843,
      "山东": 4844,
      "▁\"": 4845,
      "中华民国": 4846,
      "▁年代": 4847,
      "工业": 4848,
      "大的": 4849,
      "不同": 4850,
      "学家": 4851,
      "内蒙古": 4852,
      "▁全": 4853,
      "音乐": 4854,
      "产业": 4855,
      "an": 4856,
      "通过": 4857,
      "大陆": 4858,
      "▁国": 4859,
      "关系": 4860,
      "阿尔": 4861,
      "▁北": 4862,
      "▁与": 4863,
      "改革": 4864,
      "现代": 4865,
      "▁—": 4866,
      "第二": 4867,
      "方面": 4868,
      "▁占": 4869,
      "出现": 4870,
      "四川": 4871,
      "的一": 4872,
      "形成": 4873,
      "之后": 4874,
      "▁中华人民共和国": 4875,
      "时代": 4876,
      "▁对": 4877,
      "方法": 4878,
      "没有": 4879,
      "领域": 4880,
      "▁最": 4881,
      "自治": 4882,
      "▁从": 4883,
      "战争": 4884,
      "浙江": 4885,
      "▁新": 4886,
      "阿尔巴": 4887,
      "活动": 4888,
      "阿尔巴尼亚": 4889,
      "▁多": 4890,
      "传统": 4891,
      "委员": 4892,
      "日本": 4893,
      "▁以及": 4894,
      "香港": 4895,
      "▁上海": 4896,
      "自然": 4897,
      "电影": 4898,
      "目前": 4899,
      "面积": 4900,
      "▁后": 4901,
      "▁所": 4902,
      "ic": 4903,
      "生物": 4904,
      "中国共产党": 4905,
      "提出": 4906,
      "宁夏": 4907,
      "文学": 4908,
      "Lin": 4909,
      "人类": 4910,
      "on": 4911,
      "政策": 4912,
      "自由": 4913,
      "广东": 4914,
      "Linu": 4915,
      "▁今": 4916,
      "▁即": 4917,
      "属于": 4918,
      "▁包括": 4919,
      "▁美国": 4920,
      "增加": 4921,
      "市场": 4922,
      "Linux": 4923,
      "资源": 4924,
      "er": 4925,
      "数学": 4926,
      "正式": 4927,
      "可能": 4928,
      "地方": 4929,
      "当时": 4930,
      "已经": 4931,
      "制度": 4932,
      "中的": 4933,
      "拥有": 4934,
      "▁天": 4935,
      "上的": 4936,
      "之间": 4937,
      "▁另": 4938,
      "公司": 4939,
      "or": 4940,
      "▁天津": 4941,
      "一些": 4942,
      "▁或": 4943,
      "根据": 4944,
      "▁同时": 4945,
      "基础": 4946,
      "▁分": 4947,
      "委员会": 4948,
      "存在": 4949,
      "国民": 4950,
      "领导": 4951,
      "位于": 4952,
      "高速": 4953,
      "▁\n在": 4954,
      "计算机": 4955,
      "▁海": 4956,
      "旅游": 4957,
      "发生": 4958,
      "开放": 4959,
      "工作": 4960,
      "德国": 4961,
      "获得": 4962,
      "▁至": 4963,
      "环境": 4964,
      "▁清": 4965,
      "规模": 4966,
      "▁由于": 4967,
      "建设": 4968,
      "经济学": 4969,
      "是中国": 4970,
      "机场": 4971,
      "结构": 4972,
      "行政区": 4973,
      "▁/": 4974,
      "▁_": 4975,
      "计划": 4976,
      "哲学": 4977,
      "逐渐": 4978,
      "会议": 4979,
      "达到": 4980,
      "▁平": 4981,
      "苏联": 4982,
      "开发": 4983,
      "交通": 4984,
      "大量": 4985,
      "▁因此": 4986,
      "▁北京": 4987,
      "产生": 4988,
      "提供": 4989,
      "艺术": 4990,
      "▁元": 4991,
      "思想": 4992,
      "超过": 4993,
      "▁三": 4994,
      "al": 4995,
      "▁随": 4996,
      "控制": 4997,
      "▁年的": 4998,
      "▁汉": 4999,
      "基本": 5000,
      "▁等": 5001,
      "▁亿元": 5002,
      "▁深圳": 5003,
      "少数": 5004,
      "▁它": 5005,
      "▁然": 5006,
      "最高": 5007,
      "以来": 5008,
      "管理": 5009,
      "▁将": 5010,
      "军事": 5011,
      "zh": 5012,
      "▁江": 5013,
      "▁zh": 5014,
      "方式": 5015,
      "机构": 5016,
      "统一": 5017,
      "分为": 5018,
      "数据": 5019,
      "河南": 5020,
      "事件": 5021,
      "人民币": 5022,
      "▁并且": 5023,
      "企业": 5024,
      "时间": 5025,
      "▁公里": 5026,
      "所有": 5027,
      "▁S": 5028,
      "为主": 5029,
      "欧洲": 5030,
      "进入": 5031,
      "▁这些": 5032,
      "著名": 5033,
      "设立": 5034,
      "操作": 5035,
      "▁前": 5036,
      "▁重庆": 5037,
      "一种": 5038,
      "具有": 5039,
      "公路": 5040,
      "应用": 5041,
      "电视": 5042,
      "▁比": 5043,
      "决定": 5044,
      "就是": 5045,
      "的研究": 5046,
      "设计": 5047,
      "银行": 5048,
      "en": 5049,
      "▁A": 5050,
      "化学": 5051,
      "▁主要": 5052,
      "贸易": 5053,
      "实验": 5054,
      "对于": 5055,
      "英国": 5056,
      "公里": 5057,
      "这些": 5058,
      "▁地": 5059,
      "最早": 5060,
      "la": 5061,
      "独立": 5062,
      "王菲": 5063,
      "重要的": 5064,
      "期间": 5065,
      "行为": 5066,
      "中共": 5067,
      "平均": 5068,
      "分析": 5069,
      "广西": 5070,
      "物质": 5071,
      "平原": 5072,
      "发现": 5073,
      "组成": 5074,
      "支持": 5075,
      "法律": 5076,
      "▁高": 5077,
      "▁明": 5078,
      "人的": 5079,
      "产品": 5080,
      "西方": 5081,
      "北部": 5082,
      "气候": 5083,
      "境内": 5084,
      "自己": 5085,
      "软件": 5086,
      "▁被": 5087,
      "特别": 5088,
      "通常": 5089,
      "▁但是": 5090,
      "亚洲": 5091,
      "南部": 5092,
      "受到": 5093,
      "造成": 5094,
      "▁使": 5095,
      "电脑": 5096,
      "联合": 5097,
      "▁然而": 5098,
      "▁位": 5099,
      "▁名": 5100,
      "保护": 5101,
      "第三": 5102,
      "▁成为": 5103,
      "分布": 5104,
      "孔子": 5105,
      "心理学": 5106,
      "早期": 5107,
      "最大的": 5108,
      "范围": 5109,
      "集团": 5110,
      "▁目前": 5111,
      "▁到": 5112,
      "佛教": 5113,
      "医学": 5114,
      "地区的": 5115,
      "概念": 5116,
      "还有": 5117,
      "社会主义": 5118,
      "体育": 5119,
      "的主要": 5120,
      "需要": 5121,
      "操作系统": 5122,
      "工程": 5123,
      "形式": 5124,
      "▁此外": 5125,
      "▁各": 5126,
      "内核": 5127,
      "合作": 5128,
      "商业": 5129,
      "民主": 5130,
      "爆发": 5131,
      "▁全省": 5132,
      "导致": 5133,
      "少数民族": 5134,
      "ar": 5135,
      "区域": 5136,
      "成功": 5137,
      "程序": 5138,
      "统计": 5139,
      "▁于": 5140,
      "过程": 5141,
      "▁金": 5142,
      "同时": 5143,
      "物理学": 5144,
      "地位": 5145,
      "学校": 5146,
      "▁C": 5147,
      "全球": 5148,
      "都是": 5149,
      "▁直": 5150,
      "▁省": 5151,
      "▁经": 5152,
      "▁G": 5153,
      "▁T": 5154,
      "基督": 5155,
      "大会": 5156,
      "定义": 5157,
      "▁又": 5158,
      "▁种": 5159,
      "发达": 5160,
      "性的": 5161,
      "河流": 5162,
      "部队": 5163,
      "相关": 5164,
      "的大": 5165,
      "DP": 5166,
      "▁山东": 5167,
      "很多": 5168,
      "自治区": 5169,
      "▁现": 5170,
      "希腊": 5171,
      "的发展": 5172,
      "▁中国共产党": 5173,
      "▁除": 5174,
      "▁内蒙古": 5175,
      "土地": 5176,
      "建筑": 5177,
      "▁长": 5178,
      "游戏": 5179,
      "统治": 5180,
      "▁岁": 5181,
      "严重": 5182,
      "得到": 5183,
      "总统": 5184,
      "▁当": 5185,
      "利用": 5186,
      "生活": 5187,
      "▁马": 5188,
      "多的": 5189,
      "▁h": 5190,
      "▁中华民国": 5191,
      "国内": 5192,
      "信仰": 5193,
      "学科": 5194,
      "对象": 5195,
      "来的": 5196,
      "由于": 5197,
      "中国大陆": 5198,
      "▁黄": 5199,
      "主席": 5200,
      "多数": 5201,
      "总人口": 5202,
      "海南": 5203,
      "at": 5204,
      "▁水": 5205,
      "帝国": 5206,
      "美元": 5207,
      "▁°": 5208,
      "服务": 5209,
      "▁两": 5210,
      "▁周": 5211,
      "▁邓": 5212,
      "▁因为": 5213,
      "发行": 5214,
      "标准": 5215,
      "水平": 5216,
      "全省": 5217,
      "功能": 5218,
      "占领": 5219,
      "现象": 5220,
      "也是": 5221,
      "以上": 5222,
      "的人": 5223,
      "能够": 5224,
      "▁不过": 5225,
      "▁{": 5226,
      "▁}": 5227,
      "体系": 5228,
      "结束": 5229,
      "for": 5230,
      "▁该": 5231,
      "收入": 5232,
      "移民": 5233,
      "▁安": 5234,
      "▁实": 5235,
      "▁社会": 5236,
      "包含": 5237,
      "▁号": 5238,
      "▁唐": 5239,
      "▁小": 5240,
      "吉林": 5241,
      "政权": 5242,
      "毛泽": 5243,
      "古代": 5244,
      "来自": 5245,
      "的是": 5246,
      "虽然": 5247,
      "毛泽东": 5248,
      "▁原": 5249,
      "▁四": 5250,
      "印度": 5251,
      "方公里": 5252,
      "mu": 5253,
      "必须": 5254,
      "情况": 5255,
      "河北": 5256,
      "网络": 5257,
      "贵州": 5258,
      "云南": 5259,
      "内容": 5260,
      "一般": 5261,
      "丽君": 5262,
      "广播": 5263,
      "流行": 5264,
      "co": 5265,
      "务院": 5266,
      "常住": 5267,
      "智能": 5268,
      "普通": 5269,
      "es": 5270,
      "▁P": 5271,
      "▁经济": 5272,
      "▁四川": 5273,
      "死亡": 5274,
      "截至": 5275,
      "省份": 5276,
      "西部": 5277,
      "▁另外": 5278,
      "▁M": 5279,
      "处理": 5280,
      "世界上": 5281,
      "▁每": 5282,
      "因为": 5283,
      "学生": 5284,
      "宣布": 5285,
      "解放": 5286,
      "el": 5287,
      "分别": 5288,
      "新疆": 5289,
      "核心": 5290,
      "GDP": 5291,
      "▁华": 5292,
      "二十": 5293,
      "▁史": 5294,
      "动物": 5295,
      "变化": 5296,
      "国旗": 5297,
      "宪法": 5298,
      "小平": 5299,
      "广州": 5300,
      "之间的": 5301,
      "▁t": 5302,
      "一直": 5303,
      "书记": 5304,
      "共有": 5305,
      "则是": 5306,
      "作用": 5307,
      "完成": 5308,
      "山西": 5309,
      "科技": 5310,
      "航空": 5311,
      "mula": 5312,
      "▁家": 5313,
      "先后": 5314,
      "大利": 5315,
      "特色": 5316,
      "解释": 5317,
      "formula": 5318,
      "东北": 5319,
      "东南": 5320,
      "法国": 5321,
      "的经济": 5322,
      "▁改": 5323,
      "数量": 5324,
      "知识": 5325,
      "第一个": 5326,
      "▁日本": 5327,
      "▁E": 5328,
      "关于": 5329,
      "的影响": 5330,
      "相当": 5331,
      "▁国家": 5332,
      "两个": 5333,
      "这个": 5334,
      "丰富": 5335,
      "主教": 5336,
      "取得": 5337,
      "电子": 5338,
      "以后": 5339,
      "地理": 5340,
      "广泛": 5341,
      "新的": 5342,
      "结果": 5343,
      "他们": 5344,
      "单位": 5345,
      "甚至": 5346,
      "的国家": 5347,
      "的历史": 5348,
      "空间": 5349,
      "▁可": 5350,
      "▁外": 5351,
      "▁根据": 5352,
      "任何": 5353,
      "势力": 5354,
      "各种": 5355,
      "持续": 5356,
      "相对": 5357,
      "辽宁": 5358,
      "▁台湾": 5359,
      "伊斯": 5360,
      "▁条": 5361,
      "等地": 5362,
      "重点": 5363,
      "长江": 5364,
      "阶段": 5365,
      "常住人口": 5366,
      "▁s": 5367,
      "▁五": 5368,
      "区的": 5369,
      "要求": 5370,
      "▁加": 5371,
      "▁米": 5372,
      "东部": 5373,
      "也有": 5374,
      "人员": 5375,
      "基地": 5376,
      "定的": 5377,
      "实现": 5378,
      "文明": 5379,
      "▁中共": 5380,
      "南京": 5381,
      "参与": 5382,
      "唯一": 5383,
      "▁阿": 5384,
      "民间": 5385,
      "伊斯兰": 5386,
      "▁处": 5387,
      "▁道": 5388,
      "专辑": 5389,
      "元前": 5390,
      "尽管": 5391,
      "比较": 5392,
      "江苏": 5393,
      "程度": 5394,
      "▁秦": 5395,
      "各地": 5396,
      "恢复": 5397,
      "文字": 5398,
      "用于": 5399,
      "he": 5400,
      "完全": 5401,
      "接受": 5402,
      "▁下": 5403,
      "▁无": 5404,
      "举办": 5405,
      "制造": 5406,
      "学院": 5407,
      "安全": 5408,
      "总量": 5409,
      "描述": 5410,
      "行动": 5411,
      "采用": 5412,
      "集中": 5413,
      "历史上": 5414,
      "it": 5415,
      "不断": 5416,
      "不是": 5417,
      "主张": 5418,
      "高速公路": 5419,
      "著名的": 5420,
      "▁李": 5421,
      "学者": 5422,
      "官方": 5423,
      "普遍": 5424,
      "最大": 5425,
      "有关": 5426,
      "物理": 5427,
      "管辖": 5428,
      "▁太": 5429,
      "中医": 5430,
      "山脉": 5431,
      "继续": 5432,
      "重新": 5433,
      "首次": 5434,
      "国民党": 5435,
      "发布": 5436,
      "学的": 5437,
      "直接": 5438,
      "表示": 5439,
      "贝尔": 5440,
      "浙江省": 5441,
      "ion": 5442,
      "▁B": 5443,
      "▁青": 5444,
      "▁王菲": 5445,
      "公共": 5446,
      "匈奴": 5447,
      "福建": 5448,
      "解决": 5449,
      "re": 5450,
      "方言": 5451,
      "陕西": 5452,
      "不同的": 5453,
      "个人": 5454,
      "人工": 5455,
      "众多": 5456,
      "共同": 5457,
      "大部分": 5458,
      "王朝": 5459,
      "规划": 5460,
      "透过": 5461,
      "代表大会": 5462,
      "ice": 5463,
      "信息": 5464,
      "公园": 5465,
      "实际": 5466,
      "戏剧": 5467,
      "突破": 5468,
      "非常": 5469,
      "▁han": 5470,
      "▁亦": 5471,
      "▁只": 5472,
      "体制": 5473,
      "使得": 5474,
      "劳动": 5475,
      "实行": 5476,
      "目标": 5477,
      "能力": 5478,
      "视为": 5479,
      "都有": 5480,
      "ig": 5481,
      "一带": 5482,
      "价值": 5483,
      "体的": 5484,
      "甘肃": 5485,
      "盆地": 5486,
      "▁同年": 5487,
      "▁余": 5488,
      "举行": 5489,
      "出版": 5490,
      "发动": 5491,
      "外交": 5492,
      "学习": 5493,
      "总值": 5494,
      "执行": 5495,
      "汉族": 5496,
      "湖北": 5497,
      "近代": 5498,
      "NU": 5499,
      "▁宋": 5500,
      "▁增长": 5501,
      "沿海": 5502,
      "项目": 5503,
      "改革开放": 5504,
      "第二次": 5505,
      "is": 5506,
      "▁D": 5507,
      "▁之": 5508,
      "▁故": 5509,
      "中原": 5510,
      "居民": 5511,
      "源于": 5512,
      "版本": 5513,
      "石器": 5514,
      "较为": 5515,
      "选择": 5516,
      "中国的": 5517,
      "▁成": 5518,
      "▁广东": 5519,
      "作物": 5520,
      "减少": 5521,
      "提高": 5522,
      "负责": 5523,
      "遗址": 5524,
      "人口为": 5525,
      "om": 5526,
      "ow": 5527,
      "▁文化": 5528,
      "国歌": 5529,
      "并不": 5530,
      "是在": 5531,
      "程式": 5532,
      "▁并在": 5533,
      "▁张": 5534,
      "▁还": 5535,
      "▁全国": 5536,
      "内的": 5537,
      "召开": 5538,
      "无法": 5539,
      "生命": 5540,
      "规定": 5541,
      "资料": 5542,
      "辖市": 5543,
      "生产总值": 5544,
      "cod": 5545,
      "▁文": 5546,
      "居住": 5547,
      "居全国": 5548,
      "的重要": 5549,
      "设置": 5550,
      "资本": 5551,
      "起义": 5552,
      "ind": 5553,
      "ac": 5554,
      "▁县": 5555,
      "▁当时": 5556,
      "专业": 5557,
      "回族": 5558,
      "比例": 5559,
      "细胞": 5560,
      "被称为": 5561,
      "金融": 5562,
      "▁这种": 5563,
      "▁约": 5564,
      "分子": 5565,
      "基于": 5566,
      "排名": 5567,
      "货币": 5568,
      "高原": 5569,
      "▁其他": 5570,
      "电视台": 5571,
      "▁上": 5572,
      "▁作为": 5573,
      "了一": 5574,
      "分支": 5575,
      "力学": 5576,
      "十年": 5577,
      "反对": 5578,
      "当地": 5579,
      "气温": 5580,
      "目的": 5581,
      "综合": 5582,
      "高等": 5583,
      "▁是中国": 5584,
      "最早的": 5585,
      "codice": 5586,
      "▁市": 5587,
      "▁时": 5588,
      "▁武": 5589,
      "冲突": 5590,
      "州市": 5591,
      "推动": 5592,
      "模式": 5593,
      "等等": 5594,
      "里程": 5595,
      "OS": 5596,
      "▁二": 5597,
      "▁建": 5598,
      "仍然": 5599,
      "条约": 5600,
      "省级": 5601,
      "等人": 5602,
      "中共中央": 5603,
      "▁斯": 5604,
      "产量": 5605,
      "分类": 5606,
      "加入": 5607,
      "整个": 5608,
      "至今": 5609,
      "西南": 5610,
      "重大": 5611,
      "联合国": 5612,
      "▁o": 5613,
      "▁京": 5614,
      "▁人口": 5615,
      "出的": 5616,
      "及其": 5617,
      "大规模": 5618,
      "实施": 5619,
      "展开": 5620,
      "是一个": 5621,
      "领土": 5622,
      "人民政府": 5623,
      "▁且": 5624,
      "▁则": 5625,
      "▁总": 5626,
      "▁我": 5627,
      "下的": 5628,
      "作品": 5629,
      "媒体": 5630,
      "模型": 5631,
      "污染": 5632,
      "汽车": 5633,
      "过去": 5634,
      "阶级": 5635,
      "▁苏": 5636,
      "▁建立": 5637,
      "▁阿尔巴尼亚": 5638,
      "▁截至": 5639,
      "作业": 5640,
      "几乎": 5641,
      "十分": 5642,
      "同盟": 5643,
      "处于": 5644,
      "客运": 5645,
      "抚顺": 5646,
      "朝鲜": 5647,
      "▁千": 5648,
      "▁古": 5649,
      "▁许多": 5650,
      "为了": 5651,
      "交流": 5652,
      "华人": 5653,
      "权力": 5654,
      "条件": 5655,
      "理解": 5656,
      "长期": 5657,
      "自己的": 5658,
      "▁°C": 5659,
      "▁就": 5660,
      "▁更": 5661,
      "价格": 5662,
      "北方": 5663,
      "后的": 5664,
      "演唱": 5665,
      "破坏": 5666,
      "第一次": 5667,
      "Wind": 5668,
      "▁虽然": 5669,
      "上年": 5670,
      "其它": 5671,
      "城区": 5672,
      "精神": 5673,
      "记录": 5674,
      "连续": 5675,
      "陆续": 5676,
      "▁夏": 5677,
      "▁座": 5678,
      "化的": 5679,
      "因素": 5680,
      "批评": 5681,
      "机器": 5682,
      "罗斯": 5683,
      "著作": 5684,
      "逐步": 5685,
      "▁H": 5686,
      "▁N": 5687,
      "▁蒙古": 5688,
      "▁宁夏": 5689,
      "出了": 5690,
      "复杂": 5691,
      "建成": 5692,
      "海外": 5693,
      "▁也是": 5694,
      "Window": 5695,
      "▁~": 5696,
      "▁认为": 5697,
      "▁形成": 5698,
      "人数": 5699,
      "尤其": 5700,
      "引发": 5701,
      "显示": 5702,
      "材料": 5703,
      "的主": 5704,
      "系列": 5705,
      "选举": 5706,
      "▁年底": 5707,
      "▁所以": 5708,
      "▁>": 5709,
      "▁农": 5710,
      "▁石": 5711,
      "元年": 5712,
      "出口": 5713,
      "名称": 5714,
      "国的": 5715,
      "大多数": 5716,
      "学术": 5717,
      "性质": 5718,
      "意大利": 5719,
      "罗马": 5720,
      "迅速": 5721,
      "行政区划": 5722,
      "作业系统": 5723,
      "▁<": 5724,
      "▁R": 5725,
      "▁开": 5726,
      "名为": 5727,
      "工具": 5728,
      "市的": 5729,
      "春秋": 5730,
      "生态": 5731,
      "省的": 5732,
      "知名": 5733,
      "第四": 5734,
      "粮食": 5735,
      "需求": 5736,
      "▁年至": 5737
    },
    "merges": [
      "▁ ,",
      "▁ 。",
      "▁ 、",
      "▁ 1",
      "▁ 0",
      "▁ \n",
      "▁ 2",
      "▁ 年",
      "▁ 9",
      "▁ .",
      "▁ 5",
      "▁ 3",
      "▁ (",
      "▁ )",
      "▁ 8",
      "▁ 4",
      "中 国",
      "▁ 6",
      "▁ 7",
      "▁ 月",
      "▁ “",
      "▁ ”",
      "▁ ;",
      "▁ 《",
      "▁ 》",
      "▁ 在",
      "人 民",
      "▁ :",
      "▁ %",
      "经 济",
      "▁ 日",
      "▁ 「",
      "▁ 」",
      "▁ 其",
      "中 华",
      "▁ 万",
      "人 口",
      "地 区",
      "▁ 而",
      "▁ 并",
      "▁ -",
      "国 家",
      "政 府",
      "社 会",
      "发 展",
      "研 究",
      "文 化",
      "▁ 这",
      "▁ 中国",
      "▁ 以",
      "一 个",
      "▁ 但",
      "主 要",
      "▁ 个",
      "美 国",
      "共 和",
      "世 界",
      "历 史",
      "共和 国",
      "开 始",
      "▁ 是",
      "▁ 的",
      "成 为",
      "人民 共和国",
      "全 国",
      "上 海",
      "主 义",
      "系 统",
      "中华 人民共和国",
      "▁ ·",
      "包 括",
      "时 期",
      "▁其 中",
      "北 京",
      "蒙 古",
      "▁ 中",
      "使 用",
      "政 治",
      "▁ 大",
      "共 产",
      "科 学",
      "可 以",
      "i n",
      "▁ 人",
      "部 分",
      "天 津",
      "认 为",
      "城 市",
      "民 族",
      "▁ 一",
      "第 一",
      "教 育",
      "运 动",
      "共产 党",
      "重 庆",
      "理 论",
      "世 纪",
      "▁ 因",
      "影 响",
      "▁ 同",
      "深 圳",
      "建 立",
      "中 央",
      "进 行",
      "▁ 有",
      "▁ 由",
      "重 要",
      "理 学",
      "植 物",
      "▁ 不",
      "国 际",
      "问 题",
      "▁万 人",
      "▁ 也",
      "▁ 如",
      "民 国",
      "▁ 为",
      "铁 路",
      "大 学",
      "▁ 公",
      "▁ 亿",
      "之 一",
      "代 表",
      "▁ 西",
      "宗 教",
      "生 产",
      "▁ 南",
      "▁ 东",
      "中 心",
      "计 算",
      "其 他",
      "例 如",
      "行 政",
      "增 长",
      "▁ 和",
      "▁ 自",
      "▁ 孙",
      "▁ 此",
      "台 湾",
      "成 立",
      "作 为",
      "技 术",
      "革 命",
      "许 多",
      "▁ 世纪",
      "▁ 例如",
      "农 业",
      "尼 亚",
      "▁ 他",
      "组 织",
      "语 言",
      "称 为",
      "以 及",
      "山 东",
      "▁ \"",
      "中华 民国",
      "▁年 代",
      "工 业",
      "大 的",
      "不 同",
      "学 家",
      "内 蒙古",
      "▁ 全",
      "音 乐",
      "产 业",
      "a n",
      "通 过",
      "大 陆",
      "▁ 国",
      "关 系",
      "阿 尔",
      "▁ 北",
      "▁ 与",
      "改 革",
      "现 代",
      "▁ —",
      "第 二",
      "方 面",
      "▁ 占",
      "出 现",
      "四 川",
      "的 一",
      "形 成",
      "之 后",
      "▁ 中华人民共和国",
      "时 代",
      "▁ 对",
      "方 法",
      "没 有",
      "领 域",
      "▁ 最",
      "自 治",
      "▁ 从",
      "战 争",
      "浙 江",
      "▁ 新",
      "阿尔 巴",
      "活 动",
      "阿尔巴 尼亚",
      "▁ 多",
      "传 统",
      "委 员",
      "日 本",
      "▁以 及",
      "香 港",
      "▁ 上海",
      "自 然",
      "电 影",
      "目 前",
      "面 积",
      "▁ 后",
      "▁ 所",
      "i c",
      "生 物",
      "中国 共产党",
      "提 出",
      "宁 夏",
      "文 学",
      "L in",
      "人 类",
      "o n",
      "政 策",
      "自 由",
      "广 东",
      "Lin u",
      "▁ 今",
      "▁ 即",
      "属 于",
      "▁ 包括",
      "▁ 美国",
      "增 加",
      "市 场",
      "Linu x",
      "资 源",
      "e r",
      "数 学",
      "正 式",
      "可 能",
      "地 方",
      "当 时",
      "已 经",
      "制 度",
      "中 的",
      "拥 有",
      "▁ 天",
      "上 的",
      "之 间",
      "▁ 另",
      "公 司",
      "o r",
      "▁ 天津",
      "一 些",
      "▁ 或",
      "根 据",
      "▁同 时",
      "基 础",
      "▁ 分",
      "委员 会",
      "存 在",
      "国 民",
      "领 导",
      "位 于",
      "高 速",
      "▁\n 在",
      "计算 机",
      "▁ 海",
      "旅 游",
      "发 生",
      "开 放",
      "工 作",
      "德 国",
      "获 得",
      "▁ 至",
      "环 境",
      "▁ 清",
      "规 模",
      "▁由 于",
      "建 设",
      "经济 学",
      "是 中国",
      "机 场",
      "结 构",
      "行政 区",
      "▁ /",
      "▁ _",
      "计 划",
      "哲 学",
      "逐 渐",
      "会 议",
      "达 到",
      "▁ 平",
      "苏 联",
      "开 发",
      "交 通",
      "大 量",
      "▁因 此",
      "▁ 北京",
      "产 生",
      "提 供",
      "艺 术",
      "▁ 元",
      "思 想",
      "超 过",
      "▁ 三",
      "a l",
      "▁ 随",
      "控 制",
      "▁年 的",
      "▁ 汉",
      "基 本",
      "▁ 等",
      "▁亿 元",
      "▁ 深圳",
      "少 数",
      "▁ 它",
      "▁ 然",
      "最 高",
      "以 来",
      "管 理",
      "▁ 将",
      "军 事",
      "z h",
      "▁ 江",
      "▁ zh",
      "方 式",
      "机 构",
      "统 一",
      "分 为",
      "数 据",
      "河 南",
      "事 件",
      "人民 币",
      "▁并 且",
      "企 业",
      "时 间",
      "▁公 里",
      "所 有",
      "▁ S",
      "为 主",
      "欧 洲",
      "进 入",
      "▁这 些",
      "著 名",
      "设 立",
      "操 作",
      "▁ 前",
      "▁ 重庆",
      "一 种",
      "具 有",
      "公 路",
      "应 用",
      "电 视",
      "▁ 比",
      "决 定",
      "就 是",
      "的 研究",
      "设 计",
      "银 行",
      "e n",
      "▁ A",
      "化 学",
      "▁ 主要",
      "贸 易",
      "实 验",
      "对 于",
      "英 国",
      "公 里",
      "这 些",
      "▁ 地",
      "最 早",
      "l a",
      "独 立",
      "王 菲",
      "重要 的",
      "期 间",
      "行 为",
      "中 共",
      "平 均",
      "分 析",
      "广 西",
      "物 质",
      "平 原",
      "发 现",
      "组 成",
      "支 持",
      "法 律",
      "▁ 高",
      "▁ 明",
      "人 的",
      "产 品",
      "西 方",
      "北 部",
      "气 候",
      "境 内",
      "自 己",
      "软 件",
      "▁ 被",
      "特 别",
      "通 常",
      "▁但 是",
      "亚 洲",
      "南 部",
      "受 到",
      "造 成",
      "▁ 使",
      "电 脑",
      "联 合",
      "▁然 而",
      "▁ 位",
      "▁ 名",
      "保 护",
      "第 三",
      "▁ 成为",
      "分 布",
      "孔 子",
      "心 理学",
      "早 期",
      "最 大的",
      "范 围",
      "集 团",
      "▁ 目前",
      "▁ 到",
      "佛 教",
      "医 学",
      "地区 的",
      "概 念",
      "还 有",
      "社会 主义",
      "体 育",
      "的 主要",
      "需 要",
      "操作 系统",
      "工 程",
      "形 式",
      "▁此 外",
      "▁ 各",
      "内 核",
      "合 作",
      "商 业",
      "民 主",
      "爆 发",
      "▁全 省",
      "导 致",
      "少数 民族",
      "a r",
      "区 域",
      "成 功",
      "程 序",
      "统 计",
      "▁ 于",
      "过 程",
      "▁ 金",
      "同 时",
      "物 理学",
      "地 位",
      "学 校",
      "▁ C",
      "全 球",
      "都 是",
      "▁ 直",
      "▁ 省",
      "▁ 经",
      "▁ G",
      "▁ T",
      "基 督",
      "大 会",
      "定 义",
      "▁ 又",
      "▁ 种",
      "发 达",
      "性 的",
      "河 流",
      "部 队",
      "相 关",
      "的 大",
      "D P",
      "▁ 山东",
      "很 多",
      "自治 区",
      "▁ 现",
      "希 腊",
      "的 发展",
      "▁中国 共产党",
      "▁ 除",
      "▁ 内蒙古",
      "土 地",
      "建 筑",
      "▁ 长",
      "游 戏",
      "统 治",
      "▁ 岁",
      "严 重",
      "得 到",
      "总 统",
      "▁ 当",
      "利 用",
      "生 活",
      "▁ 马",
      "多 的",
      "▁ h",
      "▁ 中华民国",
      "国 内",
      "信 仰",
      "学 科",
      "对 象",
      "来 的",
      "由 于",
      "中国 大陆",
      "▁ 黄",
      "主 席",
      "多 数",
      "总 人口",
      "海 南",
      "a t",
      "▁ 水",
      "帝 国",
      "美 元",
      "▁ °",
      "服 务",
      "▁ 两",
      "▁ 周",
      "▁ 邓",
      "▁因 为",
      "发 行",
      "标 准",
      "水 平",
      "全 省",
      "功 能",
      "占 领",
      "现 象",
      "也 是",
      "以 上",
      "的 人",
      "能 够",
      "▁不 过",
      "▁ {",
      "▁ }",
      "体 系",
      "结 束",
      "f or",
      "▁ 该",
      "收 入",
      "移 民",
      "▁ 安",
      "▁ 实",
      "▁ 社会",
      "包 含",
      "▁ 号",
      "▁ 唐",
      "▁ 小",
      "吉 林",
      "政 权",
      "毛 泽",
      "古 代",
      "来 自",
      "的 是",
      "虽 然",
      "毛泽 东",
      "▁ 原",
      "▁ 四",
      "印 度",
      "方 公里",
      "m u",
      "必 须",
      "情 况",
      "河 北",
      "网 络",
      "贵 州",
      "云 南",
      "内 容",
      "一 般",
      "丽 君",
      "广 播",
      "流 行",
      "c o",
      "务 院",
      "常 住",
      "智 能",
      "普 通",
      "e s",
      "▁ P",
      "▁ 经济",
      "▁ 四川",
      "死 亡",
      "截 至",
      "省 份",
      "西 部",
      "▁另 外",
      "▁ M",
      "处 理",
      "世界 上",
      "▁ 每",
      "因 为",
      "学 生",
      "宣 布",
      "解 放",
      "e l",
      "分 别",
      "新 疆",
      "核 心",
      "G DP",
      "▁ 华",
      "二 十",
      "▁ 史",
      "动 物",
      "变 化",
      "国 旗",
      "宪 法",
      "小 平",
      "广 州",
      "之间 的",
      "▁ t",
      "一 直",
      "书 记",
      "共 有",
      "则 是",
      "作 用",
      "完 成",
      "山 西",
      "科 技",
      "航 空",
      "mu la",
      "▁ 家",
      "先 后",
      "大 利",
      "特 色",
      "解 释",
      "for mula",
      "东 北",
      "东 南",
      "法 国",
      "的 经济",
      "▁ 改",
      "数 量",
      "知 识",
      "第 一个",
      "▁日 本",
      "▁ E",
      "关 于",
      "的 影响",
      "相 当",
      "▁ 国家",
      "两 个",
      "这 个",
      "丰 富",
      "主 教",
      "取 得",
      "电 子",
      "以 后",
      "地 理",
      "广 泛",
      "新 的",
      "结 果",
      "他 们",
      "单 位",
      "甚 至",
      "的 国家",
      "的 历史",
      "空 间",
      "▁ 可",
      "▁ 外",
      "▁ 根据",
      "任 何",
      "势 力",
      "各 种",
      "持 续",
      "相 对",
      "辽 宁",
      "▁ 台湾",
      "伊 斯",
      "▁ 条",
      "等 地",
      "重 点",
      "长 江",
      "阶 段",
      "常住 人口",
      "▁ s",
      "▁ 五",
      "区 的",
      "要 求",
      "▁ 加",
      "▁ 米",
      "东 部",
      "也 有",
      "人 员",
      "基 地",
      "定 的",
      "实 现",
      "文 明",
      "▁中 共",
      "南 京",
      "参 与",
      "唯 一",
      "▁ 阿",
      "民 间",
      "伊斯 兰",
      "▁ 处",
      "▁ 道",
      "专 辑",
      "元 前",
      "尽 管",
      "比 较",
      "江 苏",
      "程 度",
      "▁ 秦",
      "各 地",
      "恢 复",
      "文 字",
      "用 于",
      "h e",
      "完 全",
      "接 受",
      "▁ 下",
      "▁ 无",
      "举 办",
      "制 造",
      "学 院",
      "安 全",
      "总 量",
      "描 述",
      "行 动",
      "采 用",
      "集 中",
      "历史 上",
      "i t",
      "不 断",
      "不 是",
      "主 张",
      "高速 公路",
      "著名 的",
      "▁ 李",
      "学 者",
      "官 方",
      "普 遍",
      "最 大",
      "有 关",
      "物 理",
      "管 辖",
      "▁ 太",
      "中 医",
      "山 脉",
      "继 续",
      "重 新",
      "首 次",
      "国民 党",
      "发 布",
      "学 的",
      "直 接",
      "表 示",
      "贝 尔",
      "浙江 省",
      "i on",
      "▁ B",
      "▁ 青",
      "▁ 王菲",
      "公 共",
      "匈 奴",
      "福 建",
      "解 决",
      "r e",
      "方 言",
      "陕 西",
      "不同 的",
      "个 人",
      "人 工",
      "众 多",
      "共 同",
      "大 部分",
      "王 朝",
      "规 划",
      "透 过",
      "代表 大会",
      "ic e",
      "信 息",
      "公 园",
      "实 际",
      "戏 剧",
      "突 破",
      "非 常",
      "▁h an",
      "▁ 亦",
      "▁ 只",
      "体 制",
      "使 得",
      "劳 动",
      "实 行",
      "目 标",
      "能 力",
      "视 为",
      "都 有",
      "i g",
      "一 带",
      "价 值",
      "体 的",
      "甘 肃",
      "盆 地",
      "▁同 年",
      "▁ 余",
      "举 行",
      "出 版",
      "发 动",
      "外 交",
      "学 习",
      "总 值",
      "执 行",
      "汉 族",
      "湖 北",
      "近 代",
      "N U",
      "▁ 宋",
      "▁ 增长",
      "沿 海",
      "项 目",
      "改革 开放",
      "第二 次",
      "i s",
      "▁ D",
      "▁ 之",
      "▁ 故",
      "中 原",
      "居 民",
      "源 于",
      "版 本",
      "石 器",
      "较 为",
      "选 择",
      "中国 的",
      "▁ 成",
      "▁ 广东",
      "作 物",
      "减 少",
      "提 高",
      "负 责",
      "遗 址",
      "人口 为",
      "o m",
      "o w",
      "▁ 文化",
      "国 歌",
      "并 不",
      "是 在",
      "程 式",
      "▁并 在",
      "▁ 张",
      "▁ 还",
      "▁ 全国",
      "内 的",
      "召 开",
      "无 法",
      "生 命",
      "规 定",
      "资 料",
      "辖 市",
      "生产 总值",
      "co d",
      "▁ 文",
      "居 住",
      "居 全国",
      "的 重要",
      "设 置",
      "资 本",
      "起 义",
      "in d",
      "a c",
      "▁ 县",
      "▁ 当时",
      "专 业",
      "回 族",
      "比 例",
      "细 胞",
      "被 称为",
      "金 融",
      "▁这 种",
      "▁ 约",
      "分 子",
      "基 于",
      "排 名",
      "货 币",
      "高 原",
      "▁其 他",
      "电视 台",
      "▁ 上",
      "▁ 作为",
      "了 一",
      "分 支",
      "力 学",
      "十 年",
      "反 对",
      "当 地",
      "气 温",
      "目 的",
      "综 合",
      "高 等",
      "▁是 中国",
      "最早 的",
      "cod ice",
      "▁ 市",
      "▁ 时",
      "▁ 武",
      "冲 突",
      "州 市",
      "推 动",
      "模 式",
      "等 等",
      "里 程",
      "O S",
      "▁ 二",
      "▁ 建",
      "仍 然",
      "条 约",
      "省 级",
      "等 人",
      "中共 中央",
      "▁ 斯",
      "产 量",
      "分 类",
      "加 入",
      "整 个",
      "至 今",
      "西 南",
      "重 大",
      "联合 国",
      "▁ o",
      "▁ 京",
      "▁ 人口",
      "出 的",
      "及 其",
      "大 规模",
      "实 施",
      "展 开",
      "是 一个",
      "领 土",
      "人民 政府",
      "▁ 且",
      "▁ 则",
      "▁ 总",
      "▁ 我",
      "下 的",
      "作 品",
      "媒 体",
      "模 型",
      "污 染",
      "汽 车",
      "过 去",
      "阶 级",
      "▁ 苏",
      "▁ 建立",
      "▁ 阿尔巴尼亚",
      "▁ 截至",
      "作 业",
      "几 乎",
      "十 分",
      "同 盟",
      "处 于",
      "客 运",
      "抚 顺",
      "朝 鲜",
      "▁ 千",
      "▁ 古",
      "▁ 许多",
      "为 了",
      "交 流",
      "华 人",
      "权 力",
      "条 件",
      "理 解",
      "长 期",
      "自己 的",
      "▁° C",
      "▁ 就",
      "▁ 更",
      "价 格",
      "北 方",
      "后 的",
      "演 唱",
      "破 坏",
      "第一 次",
      "W ind",
      "▁ 虽然",
      "上 年",
      "其 它",
      "城 区",
      "精 神",
      "记 录",
      "连 续",
      "陆 续",
      "▁ 夏",
      "▁ 座",
      "化 的",
      "因 素",
      "批 评",
      "机 器",
      "罗 斯",
      "著 作",
      "逐 步",
      "▁ H",
      "▁ N",
      "▁ 蒙古",
      "▁ 宁夏",
      "出 了",
      "复 杂",
      "建 成",
      "海 外",
      "▁也 是",
      "Wind ow",
      "▁ ~",
      "▁ 认为",
      "▁ 形成",
      "人 数",
      "尤 其",
      "引 发",
      "显 示",
      "材 料",
      "的 主",
      "系 列",
      "选 举",
      "▁年 底",
      "▁所 以",
      "▁ >",
      "▁ 农",
      "▁ 石",
      "元 年",
      "出 口",
      "名 称",
      "国 的",
      "大 多数",
      "学 术",
      "性 质",
      "意 大利",
      "罗 马",
      "迅 速",
      "行政区 划",
      "作业 系统",
      "▁ <",
      "▁ R",
      "▁ 开",
      "名 为",
      "工 具",
      "市 的",
      "春 秋",
      "生 态",
      "省 的",
      "知 名",
      "第 四",
      "粮 食",
      "需 求",
      "▁年 至"
    ]
  }
}